{"<s>": 0, "<pad>": 1, "</s>": 2, "<unk>": 3, "の": 4, "、": 5, "。": 6, "に": 7, "は": 8, "た": 9, "を": 10, "が": 11, "で": 12, "と": 13, "て": 14, "し": 15, "▁": 16, "年": 17, "）": 18, "れ": 19, "（": 20, "さ": 21, "ある": 22, "・": 23, "する": 24, "いる": 25, "も": 26, "「": 27, "月": 28, "」": 29, "から": 30, "日": 31, "い": 32, "こと": 33, "な": 34, "として": 35, "1": 36, "2": 37, "や": 38, "『": 39, "れる": 40, "なっ": 41, "-": 42, "』": 43, "3": 44, "など": 45, "この": 46, "人": 47, "的": 48, "ない": 49, "ため": 50, "4": 51, "者": 52, "第": 53, "その": 54, "あっ": 55, "日本": 56, "後": 57, "5": 58, "へ": 59, "(": 60, "よう": 61, "まで": 62, "られ": 63, "なる": 64, "また": 65, "あり": 66, "という": 67, "中": 68, "市": 69, "6": 70, "もの": 71, ")": 72, ".": 73, "県": 74, "10": 75, "7": 76, "か": 77, "8": 78, "だ": 79, "\"": 80, "家": 81, "おり": 82, "9": 83, "一": 84, "より": 85, "12": 86, "により": 87, "これ": 88, "によって": 89, "部": 90, "大@@": 91, ",": 92, "時": 93, "駅": 94, "化": 95, "名": 96, "11": 97, "本": 98, "による": 99, "上": 100, "ア@@": 101, "町": 102, "性": 103, "子": 104, "リ@@": 105, "線": 106, "せ": 107, "大学": 108, "き": 109, "現在": 110, "ス@@": 111, "ず": 112, "なり": 113, "国": 114, "ら": 115, "う": 116, "大": 117, "軍": 118, "間": 119, "会": 120, "州": 121, "戦": 122, "数": 123, "だっ": 124, "内": 125, "回": 126, "川": 127, "放送": 128, "マ@@": 129, "なかっ": 130, "時代": 131, "っ": 132, "カ@@": 133, "において": 134, "山": 135, "ば": 136, "ク@@": 137, "二": 138, "地": 139, "位": 140, "行わ": 141, "世界": 142, "られる": 143, "なく": 144, "目": 145, "場合": 146, "その後": 147, "について": 148, "ラ@@": 149, "前": 150, "つ": 151, "ト@@": 152, "オ@@": 153, "多く": 154, "り": 155, "シ@@": 156, "S@@": 157, "サ@@": 158, "長": 159, "島": 160, "号": 161, "田": 162, "できる": 163, "昭和": 164, "元": 165, "ロ@@": 166, "作品": 167, "しかし": 168, "レ@@": 169, "それ": 170, "バ@@": 171, "郡": 172, "エ@@": 173, "使用": 174, "タ@@": 175, "コ@@": 176, "ん": 177, "法": 178, "受け": 179, "東京": 180, "学校": 181, "機": 182, "20": 183, "他": 184, "M@@": 185, "形": 186, "ド@@": 187, "P@@": 188, "道": 189, "作": 190, "映画": 191, "下": 192, "所": 193, "区": 194, "ナ@@": 195, "イ@@": 196, "T@@": 197, "同": 198, "約": 199, "活動": 200, "用": 201, "当時": 202, "ル@@": 203, "次": 204, "万": 205, "存在": 206, "B@@": 207, "C@@": 208, "型": 209, "物": 210, "語": 211, "等": 212, "初": 213, "村": 214, "/": 215, "アメリカ": 216, "く": 217, "三": 218, "み": 219, "研究": 220, "ニ@@": 221, "分": 222, "D@@": 223, "番組": 224, "車": 225, "および": 226, "場": 227, "ミ@@": 228, "見": 229, "一@@": 230, "る": 231, "15": 232, "・@@": 233, "30": 234, "ラ": 235, "呼ば": 236, "系": 237, "彼": 238, "ハ@@": 239, "主": 240, "式": 241, "学": 242, "出身": 243, "事": 244, "曲": 245, "ウ@@": 246, "でき": 247, "同年": 248, "代表": 249, "以下": 250, "A": 251, "L@@": 252, "可能": 253, "：": 254, "行っ": 255, "す": 256, "のみ": 257, "F@@": 258, "ッ@@": 259, "体": 260, "開発": 261, "発売": 262, "社": 263, "デ@@": 264, "地域": 265, "力": 266, "パ@@": 267, "度": 268, "たち": 269, "ル": 270, "歳": 271, "なお": 272, "世": 273, "ダ@@": 274, "賞": 275, "新": 276, "フ@@": 277, "ジ@@": 278, "ム@@": 279, "ノ@@": 280, "局": 281, "小@@": 282, "ガ@@": 283, "a": 284, "発表": 285, "ビ@@": 286, "モ@@": 287, "手": 288, "点": 289, "キ@@": 290, "選手": 291, "ン@@": 292, ":": 293, "R@@": 294, "16": 295, "年代": 296, "18": 297, "チーム": 298, "における": 299, "版": 300, "ス": 301, "チ@@": 302, "い@@": 303, "以降": 304, "いう": 305, "G@@": 306, "城": 307, "平成": 308, "中心": 309, "試合": 310, "期": 311, "14": 312, "18@@": 313, "時間": 314, "ク": 315, "出場": 316, "2@@": 317, "セ@@": 318, "N@@": 319, "面": 320, "際": 321, "さらに": 322, "王": 323, "一部": 324, "南": 325, "ティ@@": 326, "13": 327, "ブ@@": 328, "本@@": 329, "E@@": 330, "大会": 331, "ン・@@": 332, "開始": 333, "ディ@@": 334, "記録": 335, "原": 336, "鉄道": 337, "s": 338, "m": 339, "0": 340, "H@@": 341, "新@@": 342, "方": 343, "t@@": 344, "19": 345, "K@@": 346, "氏": 347, "中@@": 348, "参加": 349, "17": 350, "高@@": 351, "側": 352, "生": 353, "ドイツ": 354, "関係": 355, "テ@@": 356, "開催": 357, "登場": 358, "種": 359, "せる": 360, "グ@@": 361, "出": 362, "ボ@@": 363, "ー": 364, "17@@": 365, "か@@": 366, "上@@": 367, "メ@@": 368, "リーグ": 369, "シリーズ": 370, "e": 371, "代": 372, "水": 373, "級": 374, "21": 375, "利用": 376, "シーズン": 377, "A@@": 378, "ゲーム": 379, "ズ@@": 380, "ン": 381, "にて": 382, "官": 383, "北": 384, "一般": 385, "25": 386, "だけ": 387, "プ@@": 388, "以上": 389, "リー": 390, "所属": 391, "科": 392, "め": 393, "テレビ": 394, "全": 395, "監督": 396, "B": 397, "寺": 398, "え": 399, "東": 400, "下@@": 401, "務め": 402, "ベ@@": 403, "金": 404, "ナ": 405, "音楽": 406, "フランス": 407, "多い": 408, "ス・@@": 409, "J@@": 410, "高": 411, "明治": 412, "き@@": 413, "し@@": 414, "必要": 415, "国際": 416, "イギリス": 417, "i@@": 418, "m@@": 419, "用い": 420, "ール": 421, "派": 422, "考え": 423, "会社": 424, "同じ": 425, "権": 426, "世紀": 427, "I@@": 428, "ネ@@": 429, "問題": 430, "出演": 431, "頃": 432, "イン@@": 433, "委員": 434, "ピ@@": 435, "野": 436, "e@@": 437, "水@@": 438, "東@@": 439, "リ": 440, "22": 441, "書": 442, "24": 443, "たり": 444, "W@@": 445, "事業": 446, "優勝": 447, "見@@": 448, "山@@": 449, "長@@": 450, "タ": 451, "ホ@@": 452, "に対して": 453, "行う": 454, "アルバム": 455, "色": 456, "アル@@": 457, "3@@": 458, "西@@": 459, "西": 460, "不@@": 461, "O@@": 462, "＝": 463, "V@@": 464, "なら": 465, "り@@": 466, "出@@": 467, "2010": 468, "お@@": 469, "ヒ@@": 470, "ケ@@": 471, "設置": 472, "ほか": 473, "知ら": 474, "ズ": 475, "ソ@@": 476, "23": 477, "わ": 478, "持つ": 479, "計画": 480, "卒業": 481, "三@@": 482, "通り": 483, "都市": 484, "結果": 485, "国@@": 486, "社会": 487, "役": 488, "あ@@": 489, "員": 490, "影響": 491, "ル・@@": 492, "変更": 493, "台": 494, "公@@": 495, "つ@@": 496, "石": 497, "各": 498, "教育": 499, "経": 500, "位置": 501, "隊": 502, "マン": 503, "ゴ@@": 504, "中国": 505, "サン@@": 506, "うち": 507, "C": 508, "神": 509, "ツ@@": 510, "ながら": 511, "両": 512, "ム": 513, "バー@@": 514, "地方": 515, "バス": 516, "一方": 517, "政府": 518, "ック": 519, "これら": 520, "艦": 521, "とともに": 522, "番": 523, "旧": 524, "得": 525, "シュ@@": 526, "ポ@@": 527, "M": 528, "d@@": 529, "話": 530, "2011": 531, "み@@": 532, "そして": 533, "16@@": 534, "2009": 535, "s@@": 536, "馬": 537, "er": 538, "担当": 539, "獲得": 540, "アン@@": 541, "2008": 542, "ヴィ@@": 543, "自身": 544, "でも": 545, "橋": 546, "最初": 547, "同@@": 548, "o": 549, "く@@": 550, "ペ@@": 551, "大阪": 552, "2012": 553, "イ": 554, "2007": 555, "ロ": 556, "n@@": 557, "海": 558, "28": 559, "ロー@@": 560, "特に": 561, "設立": 562, "父": 563, "建設": 564, "とき": 565, "さ@@": 566, "選挙": 567, "26": 568, "量": 569, "事件": 570, "女性": 571, "27": 572, "コン@@": 573, "円": 574, "機関": 575, "er@@": 576, "院": 577, "口": 578, "ワ@@": 579, "D": 580, "ま": 581, "日@@": 582, "中央": 583, "当初": 584, "ド・@@": 585, "木": 586, "T": 587, "E": 588, "カ": 589, "戦争": 590, "手@@": 591, "年間": 592, "2014": 593, "スト": 594, "生まれ": 595, "お": 596, "現": 597, "h@@": 598, "c@@": 599, "p@@": 600, "出し": 601, "ま@@": 602, "た@@": 603, "情報": 604, "及び": 605, "2013": 606, "l@@": 607, "同様": 608, "U@@": 609, "2015": 610, "都": 611, "勝": 612, "グループ": 613, "ター": 614, "スト@@": 615, "2006": 616, "例": 617, "部分": 618, "政治": 619, "S": 620, "2016": 621, "の@@": 622, "生@@": 623, "フ": 624, "29": 625, "b@@": 626, "行": 627, "主義": 628, "km": 629, "館": 630, "F": 631, "ので": 632, "別": 633, "それぞれ": 634, "販売": 635, "意味": 636, "天@@": 637, "ア": 638, "||": 639, "省": 640, "け": 641, "船": 642, "ファ@@": 643, "文": 644, "2017": 645, "15@@": 646, "室": 647, "ド": 648, "北@@": 649, "高等": 650, "100": 651, "デビュー": 652, "a@@": 653, "地区": 654, "以外": 655, "リー@@": 656, "じ": 657, "ット": 658, "光": 659, "外": 660, "一つ": 661, "構成": 662, "または": 663, "攻撃": 664, "i": 665, "y@@": 666, "就任": 667, "と共に": 668, "31": 669, "契約": 670, "g@@": 671, "十": 672, "t": 673, "屋": 674, "2000": 675, "y": 676, "技術": 677, "自分": 678, "50": 679, "発生": 680, "アメリカ合衆国": 681, "2018": 682, "ものの": 683, "率": 684, "平@@": 685, "党": 686, "頭": 687, "井": 688, "〜": 689, "プロ": 690, "経済": 691, "文化": 692, "かつて": 693, "制": 694, "ブ": 695, "制作": 696, "歴史": 697, "ジャ@@": 698, "向け": 699, "う@@": 700, "システム": 701, "場所": 702, "マ": 703, "2019": 704, "ザ@@": 705, "公開": 706, "r@@": 707, "アー@@": 708, "業": 709, "再": 710, "星": 711, "L": 712, "4@@": 713, "路線": 714, "施設": 715, "に関する": 716, "状態": 717, "X": 718, "無@@": 719, "2005": 720, "教授": 721, "ほど": 722, "ー・@@": 723, "正@@": 724, "終了": 725, "最も": 726, "最終": 727, "直@@": 728, "兵": 729, "団": 730, "フィ@@": 731, "採用": 732, "O": 733, "真@@": 734, "G": 735, "トン": 736, "にかけて": 737, "ノ": 738, "5@@": 739, "P": 740, "ツ": 741, "谷": 742, "取り@@": 743, "製造": 744, "40": 745, "I": 746, "ヘ@@": 747, "店": 748, "人口": 749, "フェ@@": 750, "決定": 751, "に対する": 752, "重": 753, "こ": 754, "コ": 755, "ラー": 756, "収録": 757, "流": 758, "選手権": 759, "最後": 760, "ソン": 761, "%": 762, "総": 763, "始め": 764, "k@@": 765, "入り": 766, "in@@": 767, "野球": 768, "組織": 769, "議員": 770, "朝": 771, "府": 772, "車両": 773, "ただし": 774, "与え": 775, "f@@": 776, "シャ@@": 777, "ジェ@@": 778, "目的": 779, "神@@": 780, "ラン@@": 781, "とも": 782, "u@@": 783, "R": 784, "ar@@": 785, "ギ@@": 786, "イン": 787, "明@@": 788, "K": 789, "来": 790, "高い": 791, "正": 792, "メンバー": 793, "ヤ@@": 794, "全国": 795, "生産": 796, "シングル": 797, "初めて": 798, "える": 799, "着": 800, "ト・@@": 801, "受賞": 802, "センター": 803, "ロシア": 804, "レ": 805, "ー@@": 806, "当": 807, "企業": 808, "々": 809, "ん@@": 810, "マー@@": 811, "ート": 812, "1@@": 813, "枚": 814, "宮": 815, "む": 816, "全て": 817, "モデル": 818, "7@@": 819, "キ": 820, "ヴァ@@": 821, "管理": 822, "大きな": 823, "調査": 824, "実施": 825, "年度": 826, "こ@@": 827, "o@@": 828, "機能": 829, "内@@": 830, "チ": 831, "リン": 832, "音": 833, "といった": 834, "使わ": 835, "海軍": 836, "風": 837, "チャ@@": 838, "部隊": 839, "列車": 840, "ひ@@": 841, "移籍": 842, "南@@": 843, "勝利": 844, "石@@": 845, "族": 846, "株式会社": 847, "ライ@@": 848, "平": 849, "レー@@": 850, "文@@": 851, "カー@@": 852, "ダ": 853, "人物": 854, "道路": 855, "2004": 856, "自@@": 857, "類": 858, "名称": 859, "付け": 860, "続け": 861, "高校": 862, "明": 863, "説": 864, "d": 865, "クラブ": 866, "重@@": 867, "生活": 868, "金@@": 869, "政": 870, "和@@": 871, "スタ@@": 872, "発@@": 873, "カー": 874, "最大": 875, "リア": 876, "多@@": 877, "な@@": 878, "人@@": 879, "夫": 880, "心": 881, "条": 882, "座": 883, "小学校": 884, "は@@": 885, "ゲ@@": 886, "8@@": 887, "運動": 888, "独立": 889, "協会": 890, "門": 891, "安@@": 892, "発": 893, "重要": 894, "航空": 895, "含む": 896, "女": 897, "す@@": 898, "ト": 899, "論": 900, "6@@": 901, "サッカー": 902, "or@@": 903, "発見": 904, "ら@@": 905, "製": 906, "カル@@": 907, "ール@@": 908, "構造": 909, "有@@": 910, "対応": 911, "v@@": 912, "at@@": 913, "ほとんど": 914, "器": 915, "活躍": 916, "戦い": 917, "オー@@": 918, "男": 919, "ックス": 920, "っ@@": 921, "通常": 922, "わ@@": 923, "イタリア": 924, "000": 925, "V": 926, "母": 927, "ところ": 928, "成功": 929, "持っ": 930, "田@@": 931, "加え": 932, "校": 933, "四": 934, "白@@": 935, "ント": 936, "ち": 937, "al@@": 938, "和": 939, "国内": 940, "松@@": 941, "たい": 942, "野@@": 943, "信@@": 944, "ーン": 945, "美@@": 946, "歌": 947, "路": 948, "2020": 949, "米": 950, "年@@": 951, "re@@": 952, "領": 953, "身": 954, "en@@": 955, "原@@": 956, "何": 957, "評価": 958, "ウィ@@": 959, "h": 960, "京都": 961, "エンジン": 962, "品": 963, "末": 964, "リリース": 965, "特別": 966, "設計": 967, "w@@": 968, "プロ@@": 969, "状": 970, "以前": 971, "公式": 972, "士": 973, "成": 974, "海@@": 975, "an@@": 976, "名前": 977, "史": 978, "科学": 979, "死": 980, "師": 981, "指定": 982, "基本": 983, "分@@": 984, "名@@": 985, "先": 986, "キャラクター": 987, "戦闘": 988, "ドラマ": 989, "製作": 990, "内容": 991, "設定": 992, "実際": 993, "時点": 994, "義@@": 995, "入@@": 996, "コー@@": 997, "職": 998, "気@@": 999, "ブラ@@": 1000, "字": 1001, "N": 1002, "U": 1003, "キャ@@": 1004, "達": 1005, "編成": 1006, "江戸": 1007, "出版": 1008, "作曲": 1009, "彼女": 1010, "いく": 1011, "搭載": 1012, "ウ": 1013, "と@@": 1014, "帝国": 1015, "ここ": 1016, "パー@@": 1017, "ター@@": 1018, "レン@@": 1019, "予定": 1020, "最高": 1021, "記": 1022, "様々": 1023, "アニメ": 1024, "ユ@@": 1025, "いっ": 1026, "2003": 1027, "時期": 1028, "小": 1029, "藩": 1030, "木@@": 1031, "巻": 1032, "運営": 1033, "群": 1034, "専門": 1035, "自動車": 1036, "教": 1037, "法@@": 1038, "9@@": 1039, "前@@": 1040, "人間": 1041, "通@@": 1042, "沢": 1043, "める": 1044, "～": 1045, "漫画": 1046, "尾": 1047, "よる": 1048, "花": 1049, "連合": 1050, "エン@@": 1051, "異なる": 1052, "対": 1053, "上げ": 1054, "バー": 1055, "ふ@@": 1056, "オ": 1057, "指導": 1058, "挙げ": 1059, "クラ@@": 1060, "再び": 1061, "指揮": 1062, "ハイ@@": 1063, "が@@": 1064, "提供": 1065, "ニ": 1066, "記念": 1067, "津": 1068, "導入": 1069, "運行": 1070, "国家": 1071, "地@@": 1072, "経営": 1073, "付": 1074, "初期": 1075, "港": 1076, "新た": 1077, "フォ@@": 1078, "ヨーロッパ": 1079, "実@@": 1080, "連続": 1081, "'": 1082, "スター": 1083, "特徴": 1084, "対象": 1085, "アイ@@": 1086, "に対し": 1087, "ドル": 1088, "ット@@": 1089, "基": 1090, "ち@@": 1091, "タイトル": 1092, "すべて": 1093, "組": 1094, "運転": 1095, "大きく": 1096, "会議": 1097, "it@@": 1098, "娘": 1099, "リング": 1100, "よ": 1101, "翌": 1102, "妻": 1103, "かけ": 1104, "認め": 1105, "完全": 1106, "理由": 1107, "引き@@": 1108, "集": 1109, "廃止": 1110, "小説": 1111, "死去": 1112, "公": 1113, "団体": 1114, "宗": 1115, "レイ@@": 1116, "英語": 1117, "川@@": 1118, "ック@@": 1119, "ダム": 1120, "公園": 1121, "多数": 1122, "シ": 1123, "入っ": 1124, "ード": 1125, "!": 1126, "J": 1127, "交通": 1128, "2002": 1129, "H": 1130, "外@@": 1131, "武@@": 1132, "果たし": 1133, "自由": 1134, "1990": 1135, "全@@": 1136, "表記": 1137, "教会": 1138, "ステ@@": 1139, "サービス": 1140, "のち": 1141, "Y@@": 1142, "人気": 1143, "述べ": 1144, "ゼ@@": 1145, "ジョ@@": 1146, "デザイン": 1147, "トリ@@": 1148, "命": 1149, "界": 1150, "あるいは": 1151, "しまう": 1152, "ダー": 1153, "結婚": 1154, "支援": 1155, "ッド": 1156, "ジュ@@": 1157, "2001": 1158, "バンド": 1159, "展開": 1160, "クリ@@": 1161, "競技": 1162, "全体": 1163, "葉": 1164, "五": 1165, "参照": 1166, "民": 1167, "中学校": 1168, "規模": 1169, "堂": 1170, "光@@": 1171, "土@@": 1172, "その他": 1173, "彼ら": 1174, "60": 1175, "転@@": 1176, "声": 1177, "方法": 1178, "治": 1179, "サイ@@": 1180, "街": 1181, "信": 1182, "以来": 1183, "質": 1184, "チェ@@": 1185, "任": 1186, "プ": 1187, "陸軍": 1188, "14@@": 1189, "学@@": 1190, "周辺": 1191, "層": 1192, "階": 1193, "市立": 1194, "崎": 1195, "期間": 1196, "オリンピック": 1197, "古@@": 1198, "ランド": 1199, "ホーム": 1200, "属": 1201, "ナー": 1202, "連邦": 1203, "文字": 1204, "ラジオ": 1205, "差": 1206, "マイ@@": 1207, "W": 1208, "園": 1209, "定": 1210, "結成": 1211, "&": 1212, "副": 1213, "しか": 1214, "同時に": 1215, "_": 1216, "画": 1217, "ラー@@": 1218, "気": 1219, "カン@@": 1220, "形式": 1221, "女子": 1222, "完成": 1223, "大統領": 1224, "環境": 1225, "含ま": 1226, "後@@": 1227, "レース": 1228, "丸": 1229, "総合": 1230, "じ@@": 1231, "大戦": 1232, "雄": 1233, "主張": 1234, "知@@": 1235, "ーク": 1236, "岡": 1237, "ハー@@": 1238, "ティ": 1239, "クロ@@": 1240, "春": 1241, "関連": 1242, "ーズ": 1243, "舞台": 1244, "丁目": 1245, "\"@@": 1246, "敵": 1247, "成@@": 1248, "建築": 1249, "由来": 1250, "13@@": 1251, "いずれ": 1252, "引退": 1253, "久@@": 1254, "波": 1255, "開@@": 1256, "え@@": 1257, "郎": 1258, "行い": 1259, "庁": 1260, "つけ": 1261, "大正": 1262, "ing": 1263, "もと": 1264, "自ら": 1265, "es": 1266, "動": 1267, "ベル@@": 1268, "n": 1269, "天皇": 1270, "1980": 1271, "美": 1272, "ミ": 1273, "ガ": 1274, "マル@@": 1275, "共同": 1276, "個": 1277, "on@@": 1278, "江": 1279, "ニュー@@": 1280, "夏": 1281, "撮影": 1282, "ol@@": 1283, "法人": 1284, "神社": 1285, "清@@": 1286, "ほぼ": 1287, "や@@": 1288, "労働": 1289, "ジョン": 1290, "el@@": 1291, "非常": 1292, "of": 1293, "誌": 1294, "形成": 1295, "言わ": 1296, "だ@@": 1297, "学生": 1298, "林": 1299, "ム・@@": 1300, "ノー@@": 1301, "連@@": 1302, "自然": 1303, "教@@": 1304, "on": 1305, "演奏": 1306, "カード": 1307, "億": 1308, "スペイン": 1309, "共和": 1310, "二@@": 1311, "グ": 1312, "さん": 1313, "変化": 1314, "リン@@": 1315, "k": 1316, "祭": 1317, "ラン": 1318, "整備": 1319, "ルー@@": 1320, "風@@": 1321, "スポーツ": 1322, "まま": 1323, "帯": 1324, "ろ": 1325, "決勝": 1326, "立@@": 1327, "企画": 1328, "in": 1329, "モン@@": 1330, "支配": 1331, "よく": 1332, "営業": 1333, "ビル": 1334, "右": 1335, "韓国": 1336, "学者": 1337, "ね": 1338, "最@@": 1339, "トラ@@": 1340, "白": 1341, "家@@": 1342, "べき": 1343, "行@@": 1344, "アン": 1345, "今": 1346, "非": 1347, "相@@": 1348, "ウェ@@": 1349, "ヨ@@": 1350, "電@@": 1351, "登録": 1352, "サ": 1353, "FC": 1354, "輸送": 1355, "四@@": 1356, "作戦": 1357, "1999": 1358, "表現": 1359, "姿": 1360, "移動": 1361, "状況": 1362, "マン@@": 1363, "程度": 1364, "戦@@": 1365, "入": 1366, "制度": 1367, "銀行": 1368, "0@@": 1369, "反@@": 1370, "赤@@": 1371, "英": 1372, "義": 1373, "端": 1374, "強@@": 1375, "盤": 1376, "ローマ": 1377, "ース": 1378, "子供": 1379, "st@@": 1380, "ダー@@": 1381, "砲": 1382, "Y": 1383, "司": 1384, "続い": 1385, "シン@@": 1386, "宇宙": 1387, "対戦": 1388, "新しい": 1389, "北海道": 1390, "エル@@": 1391, "合わせ": 1392, "会長": 1393, "ブル@@": 1394, "伴い": 1395, "複数": 1396, "主@@": 1397, "どう": 1398, "発展": 1399, "入れ": 1400, "ば@@": 1401, "国民": 1402, "選出": 1403, "章": 1404, "調": 1405, "永": 1406, "食": 1407, "トゥ@@": 1408, "警察": 1409, "能力": 1410, "対@@": 1411, "合": 1412, "議会": 1413, "宮@@": 1414, "値": 1415, "発行": 1416, "常@@": 1417, "角": 1418, "報告": 1419, "行政": 1420, "酸": 1421, "ぶり": 1422, "ご": 1423, "cm": 1424, "通": 1425, "”": 1426, "め@@": 1427, "ジ": 1428, "500": 1429, "特@@": 1430, "ic@@": 1431, "圏": 1432, "安": 1433, "球": 1434, "そこ": 1435, "人々": 1436, ")、": 1437, "代@@": 1438, "こう": 1439, "武": 1440, "新聞": 1441, "ップ": 1442, "之": 1443, "主要": 1444, "ニューヨーク": 1445, "弟": 1446, "軍@@": 1447, "経験": 1448, "楽": 1449, "タイ@@": 1450, "案": 1451, "表示": 1452, "試験": 1453, "れ@@": 1454, "強い": 1455, "al": 1456, "イベント": 1457, "区間": 1458, "シー@@": 1459, "\"）": 1460, "80": 1461, "確認": 1462, "1970": 1463, "ぎ": 1464, "しまっ": 1465, "産業": 1466, "太": 1467, "en": 1468, "意": 1469, "紙": 1470, "分類": 1471, "空港": 1472, "言葉": 1473, "物語": 1474, "敗": 1475, "工場": 1476, "大臣": 1477, "プラ@@": 1478, "ニー": 1479, "節": 1480, "天": 1481, "ヌ@@": 1482, "et@@": 1483, "CD": 1484, "言語": 1485, "御@@": 1486, "am@@": 1487, "メートル": 1488, "掲載": 1489, "男性": 1490, "部門": 1491, "根": 1492, "写真": 1493, "森": 1494, "ライブ": 1495, "跡": 1496, "インド": 1497, "以後": 1498, "弾": 1499, "火": 1500, "装置": 1501, "ネ": 1502, "計": 1503, "ルト": 1504, "種類": 1505, "ブリ@@": 1506, "なけれ": 1507, "35": 1508, "城@@": 1509, "方面": 1510, "運用": 1511, "行動": 1512, "息子": 1513, "付近": 1514, "1998": 1515, "電気": 1516, "郷": 1517, "バン@@": 1518, "岩@@": 1519, "日本@@": 1520, "花@@": 1521, "ズ・@@": 1522, "データ": 1523, "進": 1524, "病院": 1525, "支持": 1526, "道@@": 1527, "動物": 1528, "南部": 1529, "枠": 1530, "バイ@@": 1531, "段": 1532, "合併": 1533, "成立": 1534, "ri@@": 1535, "ロン": 1536, "mm": 1537, "六": 1538, "an": 1539, "近く": 1540, "シー": 1541, "近@@": 1542, "現代": 1543, "文学": 1544, "劇場": 1545, "実": 1546, "装": 1547, "テ": 1548, "ガン": 1549, "しい": 1550, "加@@": 1551, "はじめ": 1552, "び@@": 1553, "ヴ@@": 1554, "里": 1555, "個人": 1556, "平均": 1557, "ネット": 1558, "別@@": 1559, "相": 1560, "Z@@": 1561, "込み": 1562, "批判": 1563, "蔵": 1564, "河@@": 1565, "戸": 1566, "感": 1567, "夜": 1568, "かっ": 1569, "飛行": 1570, "総@@": 1571, "ション": 1572, "ヴェ@@": 1573, "ニア": 1574, "反対": 1575, "立": 1576, "番号": 1577, "ア・@@": 1578, "よれ": 1579, "200": 1580, "45": 1581, "サー@@": 1582, "JR": 1583, "増@@": 1584, "拡大": 1585, "ダイ@@": 1586, "求め": 1587, "復帰": 1588, "相手": 1589, "ヤ": 1590, "広島": 1591, "翌年": 1592, "ク・@@": 1593, "言": 1594, "通信": 1595, "空": 1596, "病": 1597, "保@@": 1598, "込ん": 1599, "g": 1600, "サイト": 1601, "電": 1602, "ける": 1603, "名古屋": 1604, "1997": 1605, "工業": 1606, "社長": 1607, "紹介": 1608, "黒@@": 1609, "元年": 1610, "ロー": 1611, "像": 1612, "保護": 1613, "70": 1614, "太郎": 1615, "St@@": 1616, "政@@": 1617, "レス": 1618, "出す": 1619, "方式": 1620, "ッシュ": 1621, "事故": 1622, "楽曲": 1623, "吉@@": 1624, "ンス": 1625, "効果": 1626, "ゴ": 1627, "表": 1628, "ッチ": 1629, "1996": 1630, "事@@": 1631, "為": 1632, "正式": 1633, "32": 1634, "リー・@@": 1635, "高速": 1636, "成績": 1637, "x": 1638, "後半": 1639, "距離": 1640, "産": 1641, "初代": 1642, "王国": 1643, "入る": 1644, "八": 1645, "似": 1646, "湖": 1647, "条件": 1648, "合@@": 1649, "無": 1650, "空@@": 1651, "製品": 1652, "進出": 1653, "限定": 1654, "元@@": 1655, "編集": 1656, "ラ・@@": 1657, "受ける": 1658, "岸": 1659, "勝@@": 1660, "作家": 1661, "八@@": 1662, "子@@": 1663, "司令": 1664, "ハン@@": 1665, "政策": 1666, "1995": 1667, "示す": 1668, "遊@@": 1669, "追加": 1670, "千@@": 1671, "吉": 1672, "記述": 1673, "X@@": 1674, "formula": 1675, "同じく": 1676, "配信": 1677, "速": 1678, "足": 1679, "取得": 1680, "にとって": 1681, "ール・@@": 1682, "ディ": 1683, "方向": 1684, "un@@": 1685, "愛@@": 1686, "工事": 1687, "アジア": 1688, "令": 1689, "有名": 1690, "グラ@@": 1691, "協力": 1692, "飛@@": 1693, "設け": 1694, "先@@": 1695, "il@@": 1696, "いくつ": 1697, "ザ・@@": 1698, "スティ@@": 1699, "例えば": 1700, "エ": 1701, "過去": 1702, "ング@@": 1703, "福岡": 1704, "増加": 1705, "使っ": 1706, "地元": 1707, "The": 1708, "ra@@": 1709, "ガー": 1710, "植物": 1711, "域": 1712, "市内": 1713, "トップ": 1714, "立て": 1715, "クレ@@": 1716, "将軍": 1717, "雑誌": 1718, "当@@": 1719, "に@@": 1720, "含め": 1721, "観光": 1722, "ライン": 1723, "ざ@@": 1724, "映像": 1725, "00": 1726, "交@@": 1727, "術": 1728, "連載": 1729, "ンド@@": 1730, "開業": 1731, "得点": 1732, "佐@@": 1733, "博士": 1734, "板": 1735, "超": 1736, "政権": 1737, "ごと": 1738, "兄": 1739, "リア@@": 1740, "1994": 1741, "目@@": 1742, "作ら": 1743, "初@@": 1744, "艦隊": 1745, "俳優": 1746, "時@@": 1747, "the": 1748, "モー@@": 1749, "横浜": 1750, "イー@@": 1751, "しよ": 1752, "細胞": 1753, "地球": 1754, "走": 1755, "ファン": 1756, "そう": 1757, "バ": 1758, "芸術": 1759, "ウス": 1760, "市@@": 1761, "48": 1762, "少年": 1763, "仕事": 1764, "古": 1765, "理": 1766, "住民": 1767, "客": 1768, "10@@": 1769, "造": 1770, "料": 1771, "ルス": 1772, "薬": 1773, "広@@": 1774, "装備": 1775, "豊@@": 1776, "研究所": 1777, "90": 1778, "候補": 1779, "ぶ@@": 1780, "“": 1781, "列": 1782, "私": 1783, "青@@": 1784, "席": 1785, "事実": 1786, "p": 1787, "秒": 1788, "1992": 1789, "ワ": 1790, "ロンドン": 1791, "唯一": 1792, "is@@": 1793, "親@@": 1794, "ch@@": 1795, "不明": 1796, "定@@": 1797, "家族": 1798, "千": 1799, "伝": 1800, "ac@@": 1801, "受@@": 1802, "途中": 1803, "伊@@": 1804, "項": 1805, "軍事": 1806, "学部": 1807, "ケ": 1808, "退@@": 1809, "近い": 1810, "河": 1811, "パリ": 1812, "便": 1813, "1960": 1814, "代目": 1815, "()": 1816, "ro@@": 1817, "残し": 1818, "ーム": 1819, "多": 1820, "1993": 1821, "競馬": 1822, "土地": 1823, "急@@": 1824, "症": 1825, "ぐ@@": 1826, "テーマ": 1827, "迎え": 1828, "台湾": 1829, "選ば": 1830, "くる": 1831, "王座": 1832, "国立": 1833, "防@@": 1834, "市民": 1835, "（\"": 1836, "け@@": 1837, "国道": 1838, "モ": 1839, "利@@": 1840, "北部": 1841, "1991": 1842, "逆": 1843, "敗れ": 1844, "工@@": 1845, "着@@": 1846, "プレ@@": 1847, "愛": 1848, "未": 1849, "に関して": 1850, "持ち@@": 1851, "統合": 1852, "様": 1853, "クラス": 1854, "各地": 1855, "残っ": 1856, "女優": 1857, "マー": 1858, "出さ": 1859, "シェ@@": 1860, "劇": 1861, "明らか": 1862, "分野": 1863, "日本語": 1864, "志": 1865, "樹": 1866, "l": 1867, "AR@@": 1868, "千葉": 1869, "誕生": 1870, "33": 1871, "NHK": 1872, "説明": 1873, "系統": 1874, "諸": 1875, "特定": 1876, "言う": 1877, "従来": 1878, "左": 1879, "離れ": 1880, "レン": 1881, "勢": 1882, "専用": 1883, "ます": 1884, "オリジナル": 1885, "費": 1886, "書@@": 1887, "両@@": 1888, "セン@@": 1889, "タイ": 1890, "変@@": 1891, "大型": 1892, "ヌ": 1893, "ッツ": 1894, "つつ": 1895, "規定": 1896, "示し": 1897, "かい": 1898, "条約": 1899, "配置": 1900, "公演": 1901, "=": 1902, "解@@": 1903, "1989": 1904, "源": 1905, "本部": 1906, "直接": 1907, "市場": 1908, "メ": 1909, "メン@@": 1910, "フラ@@": 1911, "寄@@": 1912, "帝": 1913, "流@@": 1914, "生物": 1915, "久": 1916, "輪": 1917, "ど@@": 1918, "トロ@@": 1919, "ur@@": 1920, "百": 1921, "決め": 1922, "事務所": 1923, "安全": 1924, "ぎ@@": 1925, "拠点": 1926, "清": 1927, "民@@": 1928, "and": 1929, "リスト": 1930, "細@@": 1931, "戦後": 1932, "選": 1933, "外国": 1934, "び": 1935, "違い": 1936, "パー": 1937, "坂": 1938, "ゾ@@": 1939, "定義": 1940, "ひとつ": 1941, ">": 1942, "内閣": 1943, "z@@": 1944, "陣": 1945, "持ち": 1946, "報": 1947, "店舗": 1948, "業務": 1949, "ゆ@@": 1950, "被害": 1951, "理@@": 1952, "55": 1953, "36": 1954, "om@@": 1955, "動@@": 1956, "指摘": 1957, "京@@": 1958, "江@@": 1959, "守": 1960, "メーカー": 1961, "図": 1962, "ライト": 1963, "精@@": 1964, "近年": 1965, "派遣": 1966, "フォー@@": 1967, "骨": 1968, "<": 1969, "ed": 1970, "ボー@@": 1971, "壁": 1972, "在": 1973, "記載": 1974, "所有": 1975, "隻": 1976, "クス": 1977, "鉄": 1978, "管": 1979, "革命": 1980, "食@@": 1981, "建物": 1982, "ロッ@@": 1983, "勝ち": 1984, "流れ": 1985, "編": 1986, "電子": 1987, "観": 1988, "順": 1989, "進め": 1990, "至る": 1991, "貢献": 1992, "知": 1993, "そのまま": 1994, "法律": 1995, "ンド": 1996, "首": 1997, "未@@": 1998, "描か": 1999, "パン@@": 2000, "進@@": 2001, "異@@": 2002, "38": 2003, "※": 2004, "苦@@": 2005, "原因": 2006, "ドゥ@@": 2007, "系列": 2008, "熱": 2009, "ょう@@": 2010, "体@@": 2011, "行為": 2012, "→": 2013, "よ@@": 2014, "務める": 2015, "創設": 2016, "京": 2017, "レコード": 2018, "障害": 2019, "スカ@@": 2020, "ロック": 2021, "Ch@@": 2022, "発電": 2023, "原作": 2024, "タイプ": 2025, "レッ@@": 2026, "反": 2027, "聖": 2028, "配@@": 2029, "ンズ": 2030, "主演": 2031, "王@@": 2032, "勢力": 2033, "普通": 2034, "34": 2035, "オープン": 2036, "部@@": 2037, "ホール": 2038, "1988": 2039, "加入": 2040, "商@@": 2041, "速度": 2042, "伝統": 2043, "県立": 2044, "農@@": 2045, "保": 2046, "理論": 2047, "仕@@": 2048, "置か": 2049, "縁": 2050, "いわ": 2051, "オン": 2052, "なし": 2053, "ウォ@@": 2054, "火@@": 2055, "主人公": 2056, "共@@": 2057, "ツアー": 2058, "成長": 2059, "名誉": 2060, "かつ": 2061, "張": 2062, "リス": 2063, "志@@": 2064, "七": 2065, "ガス": 2066, "ぶ": 2067, "アップ": 2068, "支@@": 2069, "is": 2070, "親": 2071, "て@@": 2072, "心@@": 2073, "理事": 2074, "福@@": 2075, "参@@": 2076, "破壊": 2077, "ユー@@": 2078, "ザー": 2079, "徳": 2080, "取締役": 2081, "実験": 2082, "語っ": 2083, "ハ": 2084, "幅": 2085, "商品": 2086, "j@@": 2087, "独自": 2088, "半": 2089, "真": 2090, "防衛": 2091, "ザ": 2092, "湾": 2093, "それら": 2094, "朝鮮": 2095, "実現": 2096, "ベース": 2097, "続く": 2098, "良": 2099, "物@@": 2100, "ot@@": 2101, "陽": 2102, "帰@@": 2103, "血": 2104, "購入": 2105, "投票": 2106, "反応": 2107, "1987": 2108, "同社": 2109, "37": 2110, "準": 2111, "核": 2112, "民族": 2113, "ず@@": 2114, "額": 2115, "も@@": 2116, "半@@": 2117, "断@@": 2118, "20@@": 2119, "スタジオ": 2120, "+": 2121, "電車": 2122, "秋": 2123, "as@@": 2124, "井@@": 2125, "ショ@@": 2126, "プリ@@": 2127, "軸": 2128, "浦": 2129, "キー": 2130, "42": 2131, "放@@": 2132, "そ@@": 2133, "死亡": 2134, "メイン": 2135, "件": 2136, "達成": 2137, "いい": 2138, "os@@": 2139, "分け": 2140, "カナダ": 2141, "音@@": 2142, "ワー@@": 2143, "ステージ": 2144, "松": 2145, "ウム": 2146, "本社": 2147, "素": 2148, "作業": 2149, "ブランド": 2150, "c": 2151, "300": 2152, "グリ@@": 2153, "モン": 2154, "味": 2155, "土": 2156, "維持": 2157, "宗教": 2158, "鉄@@": 2159, "作成": 2160, "呼ぶ": 2161, "服": 2162, "米国": 2163, "(\"": 2164, "格": 2165, "次@@": 2166, "収@@": 2167, "伝え": 2168, "ビー@@": 2169, "自治体": 2170, "ブレ@@": 2171, "居": 2172, "聖@@": 2173, "タン": 2174, "黒": 2175, "図書館": 2176, "入学": 2177, "スーパー": 2178, "組合": 2179, "遠@@": 2180, "すぐ": 2181, "ナイ@@": 2182, "ソフト": 2183, "要素": 2184, "1986": 2185, "化学": 2186, "プロジェクト": 2187, "低": 2188, "海外": 2189, "藤": 2190, "賀": 2191, "愛知": 2192, "住宅": 2193, "ング": 2194, ")@@": 2195, "岩": 2196, "us": 2197, "直後": 2198, "1985": 2199, "宇@@": 2200, "げ": 2201, "カップ": 2202, "同盟": 2203, "兄弟": 2204, "広く": 2205, "ポイント": 2206, "バル@@": 2207, "訳": 2208, "制御": 2209, "合い": 2210, "プレー": 2211, "描い": 2212, "ソ連": 2213, "処理": 2214, "統一": 2215, "電話": 2216, "倉": 2217, "le": 2218, "紀": 2219, "改正": 2220, "競走": 2221, "スキー": 2222, "記事": 2223, "集め": 2224, "ック・@@": 2225, "標準": 2226, "孫": 2227, "医療": 2228, "キング": 2229, "ナー@@": 2230, "減@@": 2231, "根@@": 2232, "足@@": 2233, "空間": 2234, "エル": 2235, "商業": 2236, "41": 2237, "紀元前": 2238, "継承": 2239, "藤@@": 2240, "ニュース": 2241, "児": 2242, "メディア": 2243, "IC": 2244, "乱": 2245, "44": 2246, "瀬": 2247, "AS@@": 2248, "コース": 2249, "従@@": 2250, "de": 2251, "減少": 2252, "間@@": 2253, "選択": 2254, "em@@": 2255, "パラ@@": 2256, "集団": 2257, "失@@": 2258, "精神": 2259, "ut@@": 2260, "面積": 2261, "役割": 2262, "ニー@@": 2263, "視": 2264, "まる": 2265, "ad@@": 2266, "回@@": 2267, "直": 2268, "好@@": 2269, "島@@": 2270, "アル": 2271, "ul@@": 2272, "f": 2273, "地上": 2274, "絵": 2275, "トー@@": 2276, "丘": 2277, "刊行": 2278, "移転": 2279, "生まれる": 2280, "高く": 2281, "料理": 2282, "御": 2283, "柄": 2284, "AT@@": 2285, "01": 2286, "中継": 2287, "消@@": 2288, "取り": 2289, "不": 2290, "ドラ@@": 2291, "軌道": 2292, "参戦": 2293, "昇格": 2294, "アク@@": 2295, "連盟": 2296, "39": 2297, "歌手": 2298, "代わり": 2299, "良@@": 2300, "終@@": 2301, "書か": 2302, "務": 2303, "連": 2304, "税": 2305, "結ぶ": 2306, "1984": 2307, "オランダ": 2308, "技": 2309, "定め": 2310, "基地": 2311, "貴族": 2312, "機構": 2313, "宝": 2314, "経@@": 2315, "ou@@": 2316, "トレ@@": 2317, "口@@": 2318, "ベン@@": 2319, "若@@": 2320, "一覧": 2321, "沖縄": 2322, "制限": 2323, "体制": 2324, "フリー": 2325, "ルド": 2326, "かり": 2327, "越": 2328, "鳥": 2329, "剤": 2330, "欧州": 2331, "古代": 2332, "ファイ@@": 2333, "羽@@": 2334, "つい": 2335, "材": 2336, "げる": 2337, "浜": 2338, "接続": 2339, "毎年": 2340, "変": 2341, "長い": 2342, "です": 2343, "43": 2344, "観測": 2345, "深@@": 2346, "忠@@": 2347, "船@@": 2348, "大学院": 2349, "早@@": 2350, "受け@@": 2351, "共通": 2352, "旧@@": 2353, "エー@@": 2354, "失敗": 2355, "横@@": 2356, "チュ@@": 2357, "形態": 2358, "周": 2359, "54": 2360, "毛": 2361, "ir@@": 2362, "ポジション": 2363, "テン@@": 2364, "混@@": 2365, "オリ@@": 2366, "現役": 2367, "面@@": 2368, "セット": 2369, "単位": 2370, "トル@@": 2371, "ヒット": 2372, "要求": 2373, "51": 2374, "46": 2375, "皇帝": 2376, "相当": 2377, "まだ": 2378, "デ": 2379, "売@@": 2380, "乗り@@": 2381, "大陸": 2382, "自体": 2383, "1950": 2384, "友": 2385, "神奈川": 2386, "スラ@@": 2387, "オーストラリア": 2388, "今@@": 2389, "コン": 2390, "資料": 2391, "フ・@@": 2392, "富@@": 2393, "ベスト": 2394, "終わっ": 2395, "予選": 2396, "ビ": 2397, "改革": 2398, "基準": 2399, "村@@": 2400, "指す": 2401, "DVD": 2402, "建て": 2403, "男子": 2404, "得る": 2405, "離@@": 2406, "ット・@@": 2407, "しく": 2408, "イングランド": 2409, "ケー@@": 2410, "介": 2411, "ご@@": 2412, "ね@@": 2413, "産@@": 2414, "IS@@": 2415, "段階": 2416, "新潟": 2417, "泉": 2418, "悪@@": 2419, "思わ": 2420, "尾@@": 2421, "ビデオ": 2422, "報道": 2423, "首都": 2424, "太@@": 2425, "本線": 2426, "47": 2427, "立ち": 2428, "結@@": 2429, "史上": 2430, "収め": 2431, "サー": 2432, "塚": 2433, "羽": 2434, "フル@@": 2435, "ルト@@": 2436, "ゅう@@": 2437, "罪": 2438, "取っ": 2439, "ロス": 2440, "休@@": 2441, "始まっ": 2442, "女@@": 2443, "デ・@@": 2444, "ろ@@": 2445, "エネルギー": 2446, "一時": 2447, "1983": 2448, "草": 2449, "おら": 2450, "害": 2451, "隣接": 2452, "禁止": 2453, "強く": 2454, "集@@": 2455, "付き": 2456, "12@@": 2457, "限り": 2458, "日本人": 2459, "九州": 2460, "アラ@@": 2461, "頭@@": 2462, "具": 2463, "フラン@@": 2464, "ゲン": 2465, "提案": 2466, "ベー@@": 2467, "なか": 2468, "向上": 2469, "le@@": 2470, "調@@": 2471, "李": 2472, "責任": 2473, "基礎": 2474, "脚本": 2475, "ボ": 2476, "農業": 2477, "関@@": 2478, "見る": 2479, "能": 2480, "通称": 2481, "片@@": 2482, "改造": 2483, "首相": 2484, "チョ@@": 2485, "kg": 2486, "交換": 2487, "1982": 2488, "スタート": 2489, "ホー@@": 2490, "西部": 2491, "イ・@@": 2492, "欠@@": 2493, "継続": 2494, ".@@": 2495, "美術": 2496, "復活": 2497, "追@@": 2498, "留": 2499, "レギュラー": 2500, "詳細": 2501, "到着": 2502, "ブル": 2503, "学科": 2504, "要@@": 2505, "塩@@": 2506, "1945": 2507, "シーン": 2508, "出来": 2509, "u": 2510, "刊": 2511, "内部": 2512, "たら": 2513, "指名": 2514, "諸島": 2515, "分離": 2516, "ベル": 2517, "無い": 2518, "幕府": 2519, "彦": 2520, "郵便": 2521, "会員": 2522, "兼": 2523, "左@@": 2524, "ヶ月": 2525, "学会": 2526, "\")": 2527, "解散": 2528, "停止": 2529, "展示": 2530, "極@@": 2531, "しばしば": 2532, "ユニット": 2533, "スク@@": 2534, "機@@": 2535, "利": 2536, "前後": 2537, "帰国": 2538, "右@@": 2539, "アド@@": 2540, "せ@@": 2541, "1972": 2542, "訓練": 2543, "判断": 2544, "銀": 2545, "生徒": 2546, "池": 2547, "ディー@@": 2548, "神戸": 2549, "仕様": 2550, "経由": 2551, "ホテル": 2552, "工": 2553, "打ち@@": 2554, "…": 2555, "52": 2556, "強化": 2557, "AN@@": 2558, "週": 2559, "投手": 2560, "タイム": 2561, "ユダヤ": 2562, "主催": 2563, "雲": 2564, "過@@": 2565, "兵@@": 2566, "草@@": 2567, "用いる": 2568, "五@@": 2569, "補@@": 2570, "メー@@": 2571, "アフリカ": 2572, "あれ": 2573, "ia": 2574, "関東": 2575, "遺@@": 2576, "長野": 2577, "少女": 2578, "el": 2579, "歌@@": 2580, "九": 2581, "そこで": 2582, "極": 2583, "II": 2584, "向かっ": 2585, "56": 2586, "スペ@@": 2587, "父親": 2588, "杯": 2589, "近代": 2590, "起こし": 2591, "ゼ": 2592, "博物館": 2593, "バッ@@": 2594, "1979": 2595, "とう": 2596, "備え": 2597, "暦": 2598, "打@@": 2599, "修@@": 2600, "プログラム": 2601, "埼玉": 2602, "ボール": 2603, "倍": 2604, "銃": 2605, "任命": 2606, "上記": 2607, "応@@": 2608, "地名": 2609, "宣言": 2610, "低@@": 2611, "姓": 2612, "安定": 2613, "番目": 2614, "ポーランド": 2615, "伯": 2616, "スク": 2617, "本塁打": 2618, "なさ": 2619, "th@@": 2620, "楽@@": 2621, "フレ@@": 2622, "(@@": 2623, "建造": 2624, "マーク": 2625, "破@@": 2626, "本名": 2627, "レベル": 2628, "印": 2629, "著作": 2630, "マッ@@": 2631, "機械": 2632, "コーナー": 2633, "留@@": 2634, "永@@": 2635, "門@@": 2636, "情": 2637, "少ない": 2638, "議": 2639, "円@@": 2640, "ヘル@@": 2641, "58": 2642, "命令": 2643, "性能": 2644, "文書": 2645, "衆議院": 2646, "絶@@": 2647, "ダン": 2648, "ドン": 2649, "1975": 2650, "!@@": 2651, "対立": 2652, "es@@": 2653, "デュ@@": 2654, "交流": 2655, "亜": 2656, "当選": 2657, "NE@@": 2658, "1981": 2659, "et": 2660, "もしくは": 2661, "更に": 2662, "関": 2663, "ぐ": 2664, "書い": 2665, "典": 2666, "起": 2667, "パン": 2668, "駆逐": 2669, "顔": 2670, "見せ": 2671, "ST@@": 2672, "im@@": 2673, "ation": 2674, "伝@@": 2675, "死@@": 2676, "戸@@": 2677, "雪": 2678, "都@@": 2679, "玉": 2680, "きっかけ": 2681, "ゴール": 2682, "を通じて": 2683, "改@@": 2684, "通過": 2685, "渡@@": 2686, "翼": 2687, "治療": 2688, "対策": 2689, "券": 2690, "立っ": 2691, "パ": 2692, "ビー": 2693, "電力": 2694, "自動": 2695, "作用": 2696, "乗@@": 2697, "夢": 2698, "殿": 2699, "ag@@": 2700, "礼": 2701, "兵庫": 2702, "む@@": 2703, "決@@": 2704, "開幕": 2705, "霊": 2706, "ナ・@@": 2707, "仏": 2708, "用@@": 2709, "憲法": 2710, "属する": 2711, "詩": 2712, "防御": 2713, "航": 2714, "英@@": 2715, "困難": 2716, "軽@@": 2717, "けん": 2718, "注目": 2719, "傾向": 2720, "領域": 2721, "社@@": 2722, "自己": 2723, "r": 2724, "In@@": 2725, "コンピュータ": 2726, "房": 2727, "解": 2728, "ガー@@": 2729, "400": 2730, "月@@": 2731, "1973": 2732, "操作": 2733, "格@@": 2734, "推進": 2735, "学園": 2736, "タウン": 2737, "バック": 2738, "ic": 2739, "メジャー": 2740, "海岸": 2741, "秋@@": 2742, "特殊": 2743, "陸上": 2744, "治@@": 2745, "キー@@": 2746, "広": 2747, "1978": 2748, "ヴォ@@": 2749, "もっ": 2750, "官@@": 2751, "追い@@": 2752, "週間": 2753, "ガン@@": 2754, "もう": 2755, "題": 2756, "雨": 2757, "助": 2758, "全日本": 2759, "望": 2760, "福島": 2761, "有する": 2762, "万@@": 2763, "シア": 2764, "あまり": 2765, "既に": 2766, "57": 2767, "機体": 2768, "保存": 2769, "延長": 2770, "起用": 2771, "わずか": 2772, "好き": 2773, "師団": 2774, "IN@@": 2775, "比較": 2776, "置く": 2777, "スタイル": 2778, "策": 2779, "会@@": 2780, "シティ": 2781, "or": 2782, "CM": 2783, "世@@": 2784, "id@@": 2785, "東京@@": 2786, "冠": 2787, "ion": 2788, "まし": 2789, "境": 2790, "犬": 2791, "漢": 2792, "弾@@": 2793, "津@@": 2794, "優@@": 2795, "使う": 2796, "算": 2797, "有": 2798, "発足": 2799, "OS": 2800, "An@@": 2801, "貨物": 2802, "53": 2803, "TV": 2804, "1976": 2805, "フォード": 2806, "連絡": 2807, "意見": 2808, "地震": 2809, "供給": 2810, "小さな": 2811, "比べ": 2812, "シュ": 2813, "温泉": 2814, "盛": 2815, "本人": 2816, "イメージ": 2817, "あ": 2818, "75": 2819, "判定": 2820, "龍": 2821, "薬@@": 2822, "る@@": 2823, "改称": 2824, "確保": 2825, "入団": 2826, "長官": 2827, "養@@": 2828, "1969": 2829, "1971": 2830, "幕": 2831, "満": 2832, "言っ": 2833, "血@@": 2834, "込む": 2835, "1974": 2836, "まり": 2837, "静岡": 2838, "逮捕": 2839, "布": 2840, "病@@": 2841, "登板": 2842, "クト@@": 2843, "計算": 2844, "進学": 2845, "本来": 2846, "残り": 2847, "RE@@": 2848, "1968": 2849, "地下": 2850, "秀@@": 2851, "プロデューサー": 2852, "世代": 2853, "比較的": 2854, "周年": 2855, "ar": 2856, "ダン@@": 2857, "市長": 2858, "喜@@": 2859, "造@@": 2860, "後期": 2861, "こうした": 2862, "声優": 2863, "仁": 2864, "65": 2865, "ソ": 2866, "任務": 2867, "占領": 2868, "阿@@": 2869, "メント": 2870, "閉@@": 2871, "ホル@@": 2872, "まっ": 2873, "コード": 2874, "東部": 2875, "酒": 2876, "ッチ@@": 2877, "Z": 2878, "開設": 2879, "射": 2880, "ブルク": 2881, "車@@": 2882, "度目": 2883, "49": 2884, "そ": 2885, "塔": 2886, "廃@@": 2887, "落": 2888, "荒@@": 2889, "君": 2890, "エイ@@": 2891, "普及": 2892, "試@@": 2893, "始める": 2894, "異なり": 2895, "ワイ@@": 2896, "通算": 2897, "範囲": 2898, "スター@@": 2899, "ランキング": 2900, "執筆": 2901, "後継": 2902, "車体": 2903, "単@@": 2904, "延": 2905, "ニング": 2906, "デン": 2907, "落@@": 2908, "勤務": 2909, "合計": 2910, "演出": 2911, "価": 2912, "意識": 2913, "資金": 2914, "最": 2915, "護": 2916, "いわゆる": 2917, "更新": 2918, "部屋": 2919, "替え": 2920, "ほ@@": 2921, "朝@@": 2922, "紀@@": 2923, "機器": 2924, "丸@@": 2925, "トラック": 2926, "戻っ": 2927, "動き": 2928, "59": 2929, "ュー": 2930, "仙台": 2931, "密@@": 2932, "訪れ": 2933, "メイ@@": 2934, "地位": 2935, "肉": 2936, "ed@@": 2937, "てる": 2938, "1977": 2939, "屋@@": 2940, "廃": 2941, "各@@": 2942, "マク@@": 2943, "洋@@": 2944, "ラス": 2945, "取引": 2946, "向かう": 2947, "ギャ@@": 2948, "64": 2949, "ヶ@@": 2950, "年生": 2951, "交渉": 2952, "事務": 2953, "ニコ@@": 2954, "込ま": 2955, "号線": 2956, "命名": 2957, "暴@@": 2958, "ッツ@@": 2959, "ハウス": 2960, "建": 2961, "部長": 2962, "也": 2963, "作詞": 2964, "魚": 2965, "ペン@@": 2966, "ストーリー": 2967, "家庭": 2968, "除く": 2969, "現れ": 2970, "挑戦": 2971, "キュ@@": 2972, "長崎": 2973, "冬": 2974, "裏": 2975, "物質": 2976, "助@@": 2977, "1000": 2978, "採@@": 2979, "台@@": 2980, "ポー@@": 2981, "％": 2982, "比": 2983, "演じ": 2984, "油": 2985, "CO@@": 2986, "全く": 2987, "すれ": 2988, "送": 2989, "認定": 2990, "課程": 2991, "山口": 2992, "目標": 2993, "制定": 2994, "がっ": 2995, "ピアノ": 2996, "セ": 2997, "散@@": 2998, "ワールド": 2999, "ショー": 3000, "脚": 3001, "すなわち": 3002, "長男": 3003, "陸": 3004, "行き": 3005, "実行": 3006, "取@@": 3007, "竹@@": 3008, "チャー@@": 3009, "健@@": 3010, "オーストリア": 3011, "応じ": 3012, "福": 3013, "悪": 3014, "カリフォルニア": 3015, "作っ": 3016, "改良": 3017, "べ": 3018, "辺": 3019, "近": 3020, "裁判所": 3021, "レー": 3022, "バージョン": 3023, "筋": 3024, "基@@": 3025, "余@@": 3026, "クル@@": 3027, "検討": 3028, "危険": 3029, "赤": 3030, "感染": 3031, "母@@": 3032, "価格": 3033, "スティー@@": 3034, "わけ": 3035, "オス": 3036, "OR@@": 3037, "進ん": 3038, "分布": 3039, "満@@": 3040, "アレ@@": 3041, "サン": 3042, "移行": 3043, "×": 3044, "虫": 3045, "後述": 3046, "語@@": 3047, "カリ@@": 3048, "ジョージ": 3049, "マイル": 3050, "概念": 3051, "中止": 3052, "表@@": 3053, "比@@": 3054, "クト": 3055, "どの": 3056, "こう@@": 3057, "弁": 3058, "切@@": 3059, "資格": 3060, "連隊": 3061, "b": 3062, "先発": 3063, "ボル@@": 3064, "結ん": 3065, "回転": 3066, "か月": 3067, "コーチ": 3068, "前年": 3069, "宿": 3070, "殺害": 3071, "短@@": 3072, "周囲": 3073, "民間": 3074, "機会": 3075, "感@@": 3076, "1964": 3077, "打": 3078, "私@@": 3079, "！": 3080, "球団": 3081, "プレイヤー": 3082, "扱い": 3083, "1967": 3084, "接@@": 3085, "速@@": 3086, "カラ@@": 3087, "物理": 3088, "戦車": 3089, "期待": 3090, "忠": 3091, "RO@@": 3092, "立場": 3093, "立ち@@": 3094, "哲学": 3095, "ブラジル": 3096, "解説": 3097, "小型": 3098, "切り@@": 3099, "消費": 3100, "ッド@@": 3101, "大量": 3102, "景": 3103, "ゲスト": 3104, "統治": 3105, "末@@": 3106, "再開": 3107, "ヴ": 3108, "圧": 3109, "チン": 3110, "谷@@": 3111, "62": 3112, "岡山": 3113, "タン@@": 3114, "マリ@@": 3115, "切り": 3116, "称": 3117, "録": 3118, "植民": 3119, "起き": 3120, "沼": 3121, "権利": 3122, "テン": 3123, "炎": 3124, "オル@@": 3125, "居@@": 3126, "転": 3127, "出る": 3128, "床": 3129, ")。": 3130, "脱@@": 3131, "設備": 3132, "急": 3133, "推定": 3134, "半島": 3135, "ずつ": 3136, "熱@@": 3137, "祖": 3138, "難@@": 3139, "馬@@": 3140, "出力": 3141, "歴任": 3142, "在籍": 3143, "奥@@": 3144, "民主党": 3145, "スタッフ": 3146, "弘": 3147, "納@@": 3148, "かん": 3149, "前述": 3150, "藩主": 3151, "施行": 3152, "歩": 3153, "ボン": 3154, "デン@@": 3155, "ネー@@": 3156, "始まり": 3157, "児童": 3158, "公共": 3159, "程": 3160, "撤退": 3161, "一定": 3162, "クー@@": 3163, "方針": 3164, "公立": 3165, "インターネット": 3166, "目指し": 3167, "対抗": 3168, "建@@": 3169, "ヒ": 3170, "想": 3171, "幸@@": 3172, "まず": 3173, "加盟": 3174, "準備": 3175, "洋": 3176, "属し": 3177, "本格": 3178, "グラン@@": 3179, "ER@@": 3180, "適用": 3181, "降@@": 3182, "宗@@": 3183, "興": 3184, "エリア": 3185, "感じ": 3186, "傷": 3187, "視聴": 3188, "管轄": 3189, "前作": 3190, "化@@": 3191, "区別": 3192, "製@@": 3193, "専@@": 3194, "アイドル": 3195, "1965": 3196, "裏@@": 3197, "アナウンサー": 3198, "難": 3199, "スーパー@@": 3200, "やすい": 3201, "鹿児島": 3202, "静@@": 3203, "セル": 3204, "ウン@@": 3205, "結合": 3206, "ソー@@": 3207, "取": 3208, "今日": 3209, "断": 3210, "負け": 3211, "柱": 3212, "寺@@": 3213, "スウェーデン": 3214, "ig@@": 3215, "徳川": 3216, "被@@": 3217, "ノン": 3218, "民主": 3219, "分割": 3220, "ルート": 3221, "かなり": 3222, "素@@": 3223, "誘@@": 3224, "低い": 3225, "東北": 3226, "保険": 3227, "x@@": 3228, "（@@": 3229, "熊本": 3230, "ティング": 3231, "RA@@": 3232, "宝@@": 3233, "ブロ@@": 3234, "向": 3235, "思想": 3236, "アカデミー": 3237, "定期": 3238, "旅行": 3239, "結局": 3240, "青": 3241, "金属": 3242, "県@@": 3243, "MA@@": 3244, "配": 3245, "モード": 3246, "香@@": 3247, "ネットワーク": 3248, "運@@": 3249, "与える": 3250, "観@@": 3251, "岐阜": 3252, "ミュージック": 3253, "ころ": 3254, "1966": 3255, "カン": 3256, "生じ": 3257, "ちゃん": 3258, "アイルランド": 3259, "命じ": 3260, "率いる": 3261, "不足": 3262, "国鉄": 3263, "BS": 3264, "行く": 3265, "潜水": 3266, "良い": 3267, "艇": 3268, "ジー@@": 3269, "ング・@@": 3270, "1944": 3271, "示": 3272, "奈良": 3273, "61": 3274, "割@@": 3275, "表す": 3276, "結": 3277, "剣": 3278, "1940": 3279, "町@@": 3280, "突@@": 3281, "メキシコ": 3282, "友人": 3283, "森@@": 3284, "ent@@": 3285, "単独": 3286, "すでに": 3287, "op@@": 3288, "作る": 3289, "増": 3290, "大きい": 3291, "練習": 3292, "出来る": 3293, "少なく": 3294, "季": 3295, "返@@": 3296, "合流": 3297, "登@@": 3298, "入社": 3299, "沿い": 3300, "プレイ": 3301, "階級": 3302, "教師": 3303, "激@@": 3304, "営": 3305, "ギ": 3306, "略称": 3307, "奇@@": 3308, "好": 3309, "スタ": 3310, "数@@": 3311, "春@@": 3312, "那@@": 3313, "図@@": 3314, "麻@@": 3315, "z": 3316, "幸": 3317, "ナル@@": 3318, "将": 3319, "香": 3320, "地点": 3321, "しん": 3322, "十@@": 3323, "us@@": 3324, "アリ@@": 3325, "徳@@": 3326, "伝説": 3327, "av@@": 3328, "陽@@": 3329, "太平洋": 3330, "葉@@": 3331, "改善": 3332, "編入": 3333, "全員": 3334, "ィ@@": 3335, "ベルク": 3336, "許可": 3337, "波@@": 3338, "取る": 3339, "札幌": 3340, "林@@": 3341, "平和": 3342, "多かっ": 3343, "表明": 3344, "理解": 3345, "呼称": 3346, "自治": 3347, "区域": 3348, "没": 3349, "乗車": 3350, "チャート": 3351, "ap@@": 3352, "源@@": 3353, "デル@@": 3354, "画@@": 3355, "窓": 3356, "回戦": 3357, "デジタル": 3358, "カラー": 3359, "矢@@": 3360, "前半": 3361, "オン@@": 3362, "オ・@@": 3363, "進行": 3364, "稲@@": 3365, "日間": 3366, "秋田": 3367, "聴@@": 3368, "納": 3369, "武器": 3370, "伴う": 3371, "論文": 3372, "背景": 3373, "やがて": 3374, "署": 3375, "だが": 3376, "63": 3377, "分析": 3378, "提出": 3379, "だろ": 3380, "イル": 3381, "固定": 3382, "芸": 3383, "執行": 3384, "守@@": 3385, "認識": 3386, "処分": 3387, "シン": 3388, "ピー@@": 3389, "果たす": 3390, "発言": 3391, "あたる": 3392, "しょ": 3393, "th": 3394, "裁判": 3395, "らし": 3396, "投@@": 3397, "信号": 3398, "選@@": 3399, "持た": 3400, "鈴木": 3401, "会場": 3402, "住@@": 3403, "たる": 3404, "チュー@@": 3405, "古墳": 3406, "ツィ@@": 3407, "現@@": 3408, "1930": 3409, "PC": 3410, "解放": 3411, "劉": 3412, "さまざま": 3413, "田中": 3414, "園@@": 3415, "売": 3416, "関数": 3417, "解決": 3418, "メル@@": 3419, "横": 3420, "1963": 3421, "セル@@": 3422, "吹@@": 3423, "回復": 3424, "玉@@": 3425, "スピ@@": 3426, "講師": 3427, "東日本": 3428, "だい": 3429, "形状": 3430, "片": 3431, "鎌倉": 3432, "綱": 3433, "TBS": 3434, "検@@": 3435, "ゴー@@": 3436, "意@@": 3437, "ダンス": 3438, "um@@": 3439, "議論": 3440, "シャル@@": 3441, "タル@@": 3442, "臣": 3443, "備@@": 3444, "待@@": 3445, "引@@": 3446, "願": 3447, "スコ@@": 3448, "拡張": 3449, "則": 3450, "収容": 3451, "コル@@": 3452, "大半": 3453, "空軍": 3454, "トンネル": 3455, "ティー@@": 3456, "始まる": 3457, "古い": 3458, "在@@": 3459, "ただ": 3460, "ドー@@": 3461, "スト・@@": 3462, "積": 3463, "ナン@@": 3464, "隆": 3465, "じる": 3466, "網": 3467, "ブラン@@": 3468, "合成": 3469, "プライ@@": 3470, "ほう": 3471, "推@@": 3472, "ぜ": 3473, "ジャー": 3474, "澤": 3475, "衛星": 3476, "腕": 3477, "直前": 3478, "医学": 3479, "密": 3480, "送@@": 3481, "談": 3482, "ストン": 3483, "臨@@": 3484, "起@@": 3485, "バル": 3486, "ヴァー@@": 3487, "作り": 3488, "北西": 3489, "展": 3490, "浅@@": 3491, "ヨー@@": 3492, "燃料": 3493, "太陽": 3494, "上位": 3495, "ベルト": 3496, "諸国": 3497, "名義": 3498, "否定": 3499, "健康": 3500, "li@@": 3501, "アーティスト": 3502, "負@@": 3503, "割": 3504, "医師": 3505, "医": 3506, "br": 3507, "貿易": 3508, "崩壊": 3509, "妹": 3510, "可@@": 3511, "南北": 3512, "ップ@@": 3513, "相互": 3514, "ぬ": 3515, "審査": 3516, "低下": 3517, "大幅": 3518, "パーク": 3519, "茶@@": 3520, "1962": 3521, "歩兵": 3522, "パイ@@": 3523, "減": 3524, "集落": 3525, "キリスト": 3526, "開通": 3527, "点@@": 3528, "積極": 3529, "ケース": 3530, "ファー@@": 3531, "集合": 3532, "溶@@": 3533, "グル@@": 3534, "強": 3535, "誰": 3536, "録音": 3537, "原則": 3538, "依頼": 3539, "岡@@": 3540, "翻訳": 3541, "増え": 3542, "タル": 3543, "むら": 3544, "香港": 3545, "共": 3546, "旅": 3547, "イト": 3548, "使": 3549, "02": 3550, "坂@@": 3551, "85": 3552, "金融": 3553, "頼@@": 3554, "ビア": 3555, "羅": 3556, "底": 3557, "書き": 3558, "航空機": 3559, "生息": 3560, "甲@@": 3561, "シャー": 3562, "移住": 3563, "Q": 3564, "って": 3565, "規制": 3566, "カトリック": 3567, "華": 3568, "開": 3569, "手法": 3570, "つまり": 3571, "論@@": 3572, "遺跡": 3573, "籍": 3574, "カール": 3575, "判決": 3576, "Q@@": 3577, "兵器": 3578, "残さ": 3579, "巡@@": 3580, "at": 3581, "!』": 3582, "冷@@": 3583, "現象": 3584, "新設": 3585, "拒否": 3586, "ウォー@@": 3587, "ポリ@@": 3588, "600": 3589, "告": 3590, "基づい": 3591, "予@@": 3592, "惑星": 3593, "検査": 3594, "ソフトウェア": 3595, "チャー": 3596, "oo@@": 3597, "撃": 3598, "封@@": 3599, "承認": 3600, "旗": 3601, "カイ@@": 3602, "PS": 3603, "証明": 3604, "やか": 3605, "ジュニア": 3606, "侵攻": 3607, "鳥@@": 3608, "運": 3609, "負傷": 3610, "基づく": 3611, "99": 3612, "フィールド": 3613, "ごろ": 3614, "長く": 3615, "入れる": 3616, "延@@": 3617, "巨大": 3618, "石川": 3619, "画家": 3620, "調整": 3621, "ケン@@": 3622, "かかわら": 3623, "価値": 3624, "AC@@": 3625, "前身": 3626, "暗@@": 3627, "スタン@@": 3628, "1947": 3629, "北東": 3630, "ine": 3631, "つき": 3632, "各種": 3633, "仲間": 3634, "至っ": 3635, "発射": 3636, "元々": 3637, "有効": 3638, "王者": 3639, "外交": 3640, "卵": 3641, "愛称": 3642, "刀": 3643, "1941": 3644, "率い": 3645, "買収": 3646, "母親": 3647, "枝": 3648, "ッ": 3649, "カメラ": 3650, "知事": 3651, "ev@@": 3652, "カル": 3653, "犯罪": 3654, "警@@": 3655, "上げる": 3656, "祭@@": 3657, "投": 3658, "Al@@": 3659, "舞@@": 3660, "戦略": 3661, "国勢調査": 3662, "つける": 3663, "求める": 3664, "1961": 3665, "新人": 3666, "95": 3667, "19@@": 3668, "記者": 3669, "来@@": 3670, "およそ": 3671, "1943": 3672, "生成": 3673, "–": 3674, "ウル@@": 3675, "県内": 3676, "初頭": 3677, "1942": 3678, "浮@@": 3679, "ルール": 3680, "通っ": 3681, "テル@@": 3682, "ec@@": 3683, "扱う": 3684, "止め": 3685, "どちら": 3686, "灯": 3687, "ニック": 3688, "抵抗": 3689, "800": 3690, "残@@": 3691, "ポール": 3692, "反乱": 3693, "置い": 3694, "竹": 3695, "ベルリン": 3696, "恵": 3697, "打率": 3698, "ポート": 3699, "#": 3700, "乱@@": 3701, "ミン": 3702, "ション@@": 3703, "ジャパン": 3704, "シュー@@": 3705, "現地": 3706, "所@@": 3707, "友@@": 3708, "確立": 3709, "全米": 3710, "有し": 3711, "統計": 3712, "ワールドカップ": 3713, "英国": 3714, "ギター": 3715, "高度": 3716, "飲@@": 3717, "達し": 3718, "多様": 3719, "各国": 3720, "グランプリ": 3721, "立つ": 3722, "単": 3723, "書き@@": 3724, "性格": 3725, "ニュー": 3726, "次郎": 3727, "注@@": 3728, "サイズ": 3729, "ミー": 3730, "ブロック": 3731, "あげ": 3732, "鏡": 3733, "ルフ": 3734, "脳": 3735, "クション": 3736, "過程": 3737, "ワン@@": 3738, "影": 3739, "祝@@": 3740, "ER": 3741, "せい": 3742, "卿": 3743, "給@@": 3744, "付@@": 3745, "フェル@@": 3746, "関西": 3747, "TO@@": 3748, "一郎": 3749, "学ん": 3750, "開か": 3751, "能@@": 3752, "折": 3753, "，": 3754, "投資": 3755, "所在": 3756, "ab@@": 3757, "72": 3758, "危機": 3759, "1948": 3760, "由@@": 3761, "患者": 3762, "べく": 3763, "華@@": 3764, "まとめ": 3765, "人民": 3766, "南西": 3767, "軽": 3768, "ばかり": 3769, "呼ん": 3770, "表面": 3771, "穴": 3772, "分子": 3773, "1946": 3774, "従事": 3775, "職員": 3776, "アナ": 3777, "披露": 3778, "スタジアム": 3779, "布@@": 3780, "せん": 3781, "1958": 3782, "AM@@": 3783, "レット": 3784, "アナ@@": 3785, "1949": 3786, "姫": 3787, "宿@@": 3788, "考える": 3789, "世帯": 3790, "ストラ@@": 3791, "送っ": 3792, "食品": 3793, "記さ": 3794, "ay": 3795, "ッド・@@": 3796, "1959": 3797, "残る": 3798, "初回": 3799, "パル@@": 3800, "上昇": 3801, "築@@": 3802, "プル": 3803, "トラン@@": 3804, "とっ": 3805, "SS": 3806, "86": 3807, "ひ": 3808, "ギリシャ": 3809, "夜@@": 3810, "政党": 3811, "変え": 3812, "カバー": 3813, "座@@": 3814, "〈": 3815, "角@@": 3816, "%、": 3817, "吉田": 3818, "〉": 3819, "地帯": 3820, "自": 3821, "1920": 3822, "当たり": 3823, "クライ@@": 3824, "楽器": 3825, "イス": 3826, "称し": 3827, "チャンネル": 3828, "にわたって": 3829, "ページ": 3830, "殺": 3831, "商": 3832, "ミン@@": 3833, "キン@@": 3834, "中村": 3835, "注意": 3836, "組み合わせ": 3837, "味@@": 3838, "テル": 3839, "広告": 3840, "合格": 3841, "トル": 3842, "中学": 3843, "終わり": 3844, "中世": 3845, "奉@@": 3846, "81": 3847, "サポート": 3848, "試み": 3849, "ビル@@": 3850, "隆@@": 3851, "優れ": 3852, "テスト": 3853, "労": 3854, "用意": 3855, "譲@@": 3856, "軍人": 3857, "育@@": 3858, "ドロ@@": 3859, "探@@": 3860, "作@@": 3861, "十分": 3862, "茶": 3863, "プリン@@": 3864, "緑": 3865, "限ら": 3866, "1955": 3867, "向@@": 3868, "知っ": 3869, "居住": 3870, "過ぎ": 3871, "古く": 3872, "テー@@": 3873, "財団": 3874, "宣@@": 3875, "消滅": 3876, "収入": 3877, "中間": 3878, "焼@@": 3879, "魔@@": 3880, "佐藤": 3881, "幼@@": 3882, "1956": 3883, "ドリ@@": 3884, "貸@@": 3885, "クター": 3886, "ウイルス": 3887, "念": 3888, "ナル": 3889, "色@@": 3890, "死後": 3891, "-@@": 3892, "票": 3893, "フロ@@": 3894, "as": 3895, "05": 3896, "失っ": 3897, "事態": 3898, "初め": 3899, "再@@": 3900, "老@@": 3901, "発達": 3902, "スー@@": 3903, "ジャン": 3904, "継い": 3905, "兵士": 3906, "強制": 3907, "完@@": 3908, "メン": 3909, "Th@@": 3910, "やや": 3911, "遅れ": 3912, "以@@": 3913, "ゃ@@": 3914, "超える": 3915, "フジテレビ": 3916, "ミサイル": 3917, "衆": 3918, "コンサート": 3919, "and@@": 3920, "エジプト": 3921, "米@@": 3922, "od@@": 3923, "菌": 3924, "ジュ": 3925, "ュ@@": 3926, "沖": 3927, "星@@": 3928, "03": 3929, "ソビエト": 3930, "方@@": 3931, "信仰": 3932, "オフ": 3933, "指@@": 3934, "街道": 3935, "甲": 3936, "同日": 3937, "創業": 3938, "抜@@": 3939, "ウス・@@": 3940, "思い@@": 3941, "山田": 3942, "インタビュー": 3943, "荘": 3944, "集中": 3945, "ソング": 3946, "神経": 3947, "茂": 3948, "年齢": 3949, "富山": 3950, "機動": 3951, "遺産": 3952, "球@@": 3953, "規格": 3954, "用語": 3955, "づ@@": 3956, "問": 3957, "ak@@": 3958, "起こっ": 3959, "ジャー@@": 3960, "寺院": 3961, "栄": 3962, "美術館": 3963, "ペ": 3964, "協議": 3965, "ゴン": 3966, "終え": 3967, "投入": 3968, "常": 3969, "青年": 3970, "知識": 3971, "済": 3972, "ブ・@@": 3973, "イオン": 3974, "国王": 3975, "閉鎖": 3976, "スペシャル": 3977, "Sh@@": 3978, "ウェイ": 3979, "ep@@": 3980, "規則": 3981, "微@@": 3982, "ard": 3983, "バン": 3984, "プロレス": 3985, "1952": 3986, "76": 3987, "長期": 3988, "コロ@@": 3989, "レーベル": 3990, "ザン@@": 3991, "デー@@": 3992, "眼": 3993, "イズ": 3994, "奪": 3995, "戦隊": 3996, "分の": 3997, "河川": 3998, "スパ@@": 3999, "いち": 4000, "宮城": 4001, "動画": 4002, "保有": 4003, "07": 4004, "西側": 4005, "身長": 4006, "蔵@@": 4007, "輸入": 4008, "形@@": 4009, "備": 4010, "ヴァ": 4011, "にあたる": 4012, "リオ": 4013, "改名": 4014, "慶": 4015, "少": 4016, "常に": 4017, "護衛": 4018, "フル": 4019, "レッド": 4020, "ディー": 4021, "何@@": 4022, "興@@": 4023, "末期": 4024, "議長": 4025, "見える": 4026, "1954": 4027, "ど": 4028, "ソロ": 4029, "共に": 4030, "身@@": 4031, "畑": 4032, "一緒": 4033, "曲@@": 4034, "昇進": 4035, "皮": 4036, "04": 4037, "非@@": 4038, "弟子": 4039, "南東": 4040, "現場": 4041, "88": 4042, "加": 4043, "下記": 4044, "サウ@@": 4045, "寿": 4046, ")」": 4047, "ジー": 4048, "押@@": 4049, "北京": 4050, "早く": 4051, "財@@": 4052, "左右": 4053, "／": 4054, "無料": 4055, "走行": 4056, "服@@": 4057, "酒@@": 4058, "エピソード": 4059, "筆": 4060, "潜@@": 4061, "カット": 4062, "希望": 4063, "続き": 4064, "特急": 4065, "膜": 4066, "66": 4067, "具体": 4068, "弁護士": 4069, "ネス": 4070, "続ける": 4071, "藤原": 4072, "IC@@": 4073, "キャリア": 4074, "沈@@": 4075, "三郎": 4076, "ドル@@": 4077, "環": 4078, "アニ@@": 4079, "78": 4080, "育成": 4081, "固@@": 4082, "略": 4083, "与": 4084, "実業": 4085, "再建": 4086, "マス": 4087, "毎週": 4088, "大き": 4089, "Ar@@": 4090, "血液": 4091, "裁": 4092, "解釈": 4093, "Mar@@": 4094, "スイス": 4095, "画面": 4096, "クロー@@": 4097, "わり": 4098, "可": 4099, "栄@@": 4100, "もつ": 4101, "w": 4102, "思っ": 4103, "修": 4104, "協定": 4105, "こそ": 4106, "独@@": 4107, "同士": 4108, "サラ@@": 4109, "地下鉄": 4110, "再生": 4111, "77": 4112, "付い": 4113, "浜@@": 4114, "頼": 4115, "ハンガリー": 4116, "傘下": 4117, "墓": 4118, "ファイル": 4119, "=\"": 4120, "阪神": 4121, "隠@@": 4122, "qu@@": 4123, "句": 4124, "覚": 4125, "積@@": 4126, "ザー@@": 4127, "空気": 4128, "判明": 4129, "整@@": 4130, "捕@@": 4131, "皇@@": 4132, "タレント": 4133, "1953": 4134, "GP": 4135, "守備": 4136, "ポルトガル": 4137, "栽培": 4138, "数学": 4139, "新宿": 4140, "狭@@": 4141, "伊": 4142, "思い": 4143, "中華人民共和国": 4144, "様子": 4145, "かし": 4146, "1957": 4147, "ロ・@@": 4148, "グレ@@": 4149, "執@@": 4150, "復@@": 4151, "ネーム": 4152, "吸収": 4153, "境界": 4154, "ポ": 4155, "大分": 4156, "UN@@": 4157, "工学": 4158, "呼び@@": 4159, "ヌス": 4160, "適@@": 4161, "67": 4162, "らい": 4163, "舎": 4164, "ウィリアム": 4165, "百@@": 4166, "臨時": 4167, "衝突": 4168, "超え": 4169, "向き": 4170, "デイ@@": 4171, "豊": 4172, "沿岸": 4173, "康": 4174, "ワン": 4175, "68": 4176, "92": 4177, "携帯": 4178, "業界": 4179, "キシ@@": 4180, "アッ@@": 4181, "国境": 4182, "ベトナム": 4183, "一族": 4184, "越@@": 4185, "競@@": 4186, "82": 4187, "上映": 4188, "リュ@@": 4189, "eg@@": 4190, "ホーム@@": 4191, "峰": 4192, "個体": 4193, "ow@@": 4194, "争い": 4195, "しまい": 4196, "律": 4197, "手段": 4198, "要請": 4199, "1939": 4200, "東西": 4201, "冊": 4202, "営@@": 4203, "to": 4204, "芸能": 4205, "刑": 4206, "腹": 4207, "証": 4208, "富士@@": 4209, "容": 4210, "副@@": 4211, "よし": 4212, "ぼ@@": 4213, "射@@": 4214, "乳@@": 4215, "サイド": 4216, "然": 4217, "碑": 4218, "博": 4219, "置": 4220, "回り": 4221, "住ん": 4222, "ジャ": 4223, "呂": 4224, "パス": 4225, "アン・@@": 4226, "ゲー@@": 4227, "同一": 4228, "83": 4229, "バラ": 4230, "抱@@": 4231, "箇所": 4232, "98": 4233, "習@@": 4234, "1951": 4235, "共演": 4236, "組み@@": 4237, "ov@@": 4238, "捜査": 4239, "am": 4240, "名付け": 4241, "除@@": 4242, "分かれ": 4243, "構想": 4244, "酸化": 4245, "二つ": 4246, "医@@": 4247, "思@@": 4248, "資本": 4249, "かも": 4250, "学院": 4251, "回避": 4252, "ラム": 4253, "ヴェル@@": 4254, "71": 4255, "々@@": 4256, "ツェ@@": 4257, "正確": 4258, "ナイト": 4259, "充@@": 4260, "受け入れ": 4261, "厚@@": 4262, "提@@": 4263, "引き続き": 4264, "合意": 4265, "鳴@@": 4266, "話題": 4267, "エア@@": 4268, "オール": 4269, "撃@@": 4270, "うえ": 4271, "深夜": 4272, "リッ@@": 4273, "上がっ": 4274, "la@@": 4275, "そのもの": 4276, "ディ・@@": 4277, "領@@": 4278, "ダウン": 4279, "側面": 4280, "キャン@@": 4281, "組@@": 4282, "陸@@": 4283, "徳島": 4284, "銃@@": 4285, "アクセス": 4286, "有力": 4287, "喜": 4288, "進む": 4289, "ドラフト": 4290, "ワシントン": 4291, "クリー@@": 4292, "iv@@": 4293, "国会": 4294, "あたり": 4295, "ワード": 4296, "深い": 4297, "橋@@": 4298, "動作": 4299, "悪化": 4300, "姉妹": 4301, "文庫": 4302, "次第に": 4303, "スクール": 4304, "73": 4305, "業者": 4306, "指示": 4307, "交差点": 4308, "塩": 4309, "劇団": 4310, "伸@@": 4311, "救@@": 4312, "ぱ@@": 4313, "防": 4314, "活用": 4315, "六@@": 4316, "フリー@@": 4317, "エク@@": 4318, "キン": 4319, "○": 4320, "ロード": 4321, "改修": 4322, "歌詞": 4323, "96": 4324, "侯": 4325, "使い": 4326, "少し": 4327, "イド": 4328, "出現": 4329, "息": 4330, "山本": 4331, "爆発": 4332, "払@@": 4333, "仏教": 4334, "標高": 4335, "りつ": 4336, "89": 4337, "もっとも": 4338, "急行": 4339, "垣": 4340, "自宅": 4341, "興行": 4342, "指": 4343, "類似": 4344, "生命": 4345, "さい": 4346, "文化財": 4347, "秀": 4348, "渡っ": 4349, "将来": 4350, "THE": 4351, "自転車": 4352, "マシン": 4353, "最多": 4354, "届@@": 4355, "グ・@@": 4356, "税@@": 4357, "即@@": 4358, "複雑": 4359, "スキ@@": 4360, "よい": 4361, "演劇": 4362, "現実": 4363, "ジン": 4364, "仁@@": 4365, "弱@@": 4366, "あと": 4367, "学習": 4368, "ター・@@": 4369, "現存": 4370, "上陸": 4371, "著書": 4372, "colspan": 4373, "歯": 4374, "サル@@": 4375, "トルコ": 4376, "容@@": 4377, "べ@@": 4378, "ユニ@@": 4379, "養": 4380, "」@@": 4381, "ロン@@": 4382, "リンク": 4383, "で@@": 4384, "流れる": 4385, "ヶ": 4386, "ゲ": 4387, "ョ": 4388, "明確": 4389, "BC": 4390, "06": 4391, "勇@@": 4392, "原子": 4393, "教え": 4394, "弱": 4395, "両方": 4396, "1937": 4397, "譜": 4398, "ガイ@@": 4399, "役@@": 4400, "項目": 4401, "株": 4402, "相撲": 4403, "をもって": 4404, "殺@@": 4405, "テレ@@": 4406, "返し": 4407, "闘": 4408, "08": 4409, "所在地": 4410, "武装": 4411, "性@@": 4412, "ズム": 4413, "異": 4414, "次元": 4415, "91": 4416, "ユーザー": 4417, "便@@": 4418, "海上": 4419, "タ・@@": 4420, "東京大学": 4421, "ブー@@": 4422, "様式": 4423, "徐々に": 4424, "子会社": 4425, "創立": 4426, "著名": 4427, "繰り返し": 4428, "構築": 4429, "高橋": 4430, "性質": 4431, "心理": 4432, "ドア": 4433, "150": 4434, "皇": 4435, "貞": 4436, "両者": 4437, "ランク": 4438, "連れ": 4439, "殺人": 4440, "背@@": 4441, "チャンピオン": 4442, "県道": 4443, "を通して": 4444, "モスクワ": 4445, "アウト": 4446, "oc@@": 4447, "87": 4448, "磁@@": 4449, "アウ@@": 4450, "授与": 4451, "売却": 4452, "スコ": 4453, "ェ@@": 4454, "ファー": 4455, "74": 4456, "即位": 4457, "一種": 4458, "エリ@@": 4459, "ヴァン@@": 4460, "博@@": 4461, "財政": 4462, "掛け": 4463, "訪問": 4464, "ビン": 4465, "呉": 4466, "エン": 4467, "箱": 4468, "停車": 4469, "ラント": 4470, "ファ": 4471, "一致": 4472, "古典": 4473, "免許": 4474, "巣": 4475, "添@@": 4476, "竜": 4477, "ch": 4478, "人員": 4479, "露": 4480, "）@@": 4481, "インディ@@": 4482, "84": 4483, "区分": 4484, "ょ@@": 4485, "杉@@": 4486, "松本": 4487, "マニ@@": 4488, "Un@@": 4489, "周@@": 4490, "実質": 4491, "ティ・@@": 4492, "ィ": 4493, "ロケット": 4494, "教徒": 4495, "離脱": 4496, "容易": 4497, "69": 4498, "照@@": 4499, "鎮@@": 4500, "茨城": 4501, "棟": 4502, "唐": 4503, "1936": 4504, "中部": 4505, "駅舎": 4506, "ジャン@@": 4507, "扉": 4508, "若い": 4509, "遅@@": 4510, "龍@@": 4511, "遠征": 4512, "圧@@": 4513, "保持": 4514, "Sp@@": 4515, "ノル@@": 4516, "庫": 4517, "翌日": 4518, "主力": 4519, "オペラ": 4520, "同時": 4521, "ロサンゼルス": 4522, "続": 4523, "1938": 4524, "\"\"": 4525, "文献": 4526, "場面": 4527, "三重": 4528, "振@@": 4529, "セー@@": 4530, "描く": 4531, "宅": 4532, "ON": 4533, "功": 4534, "盛ん": 4535, "ティー": 4536, "ポン@@": 4537, "ージ": 4538, "処@@": 4539, "リアン": 4540, "袋": 4541, "混乱": 4542, "カタ@@": 4543, "改め": 4544, "順@@": 4545, "吸@@": 4546, "趣味": 4547, "叙@@": 4548, "とおり": 4549, "予備": 4550, "09": 4551, "恋": 4552, "習": 4553, "ディア": 4554, "統": 4555, "アー": 4556, "荷": 4557, "ミニ@@": 4558, "スペース": 4559, "流行": 4560, "転換": 4561, "封": 4562, "利益": 4563, "戦線": 4564, "視@@": 4565, "無線": 4566, "公表": 4567, "共産党": 4568, "養子": 4569, "補助": 4570, "昌": 4571, "変換": 4572, "締結": 4573, "幕@@": 4574, "姉": 4575, "制@@": 4576, "ッカー": 4577, "鶴@@": 4578, "装甲": 4579, "客@@": 4580, "アフ@@": 4581, "ディング": 4582, "書籍": 4583, "洗@@": 4584, "刺@@": 4585, "身体": 4586, "ビジネス": 4587, "ジア": 4588, "人類": 4589, "☆": 4590, "シル@@": 4591, "くれ": 4592, "禄": 4593, "ギリシア": 4594, "体験": 4595, "事情": 4596, "FM": 4597, "らしい": 4598, "重量": 4599, "里@@": 4600, "青森": 4601, "演": 4602, "ハル@@": 4603, "付属": 4604, "軍団": 4605, "飛び@@": 4606, "ブレーキ": 4607, "イスラエル": 4608, "兵衛": 4609, "予想": 4610, "除い": 4611, "最優秀": 4612, "出走": 4613, "!」": 4614, "問@@": 4615, "創刊": 4616, "設": 4617, "七@@": 4618, "大賞": 4619, "報@@": 4620, "戦死": 4621, "魔": 4622, "歴代": 4623, "迫@@": 4624, "生き@@": 4625, "倒": 4626, "取ら": 4627, "プロダクション": 4628, "疑@@": 4629, "寄せ": 4630, "刑事": 4631, "牛": 4632, "奏": 4633, "不可能": 4634, "持@@": 4635, "参謀": 4636, "未来": 4637, "守る": 4638, "伯爵": 4639, "いえ": 4640, "マグ@@": 4641, "堀": 4642, "雑@@": 4643, "予算": 4644, "Ma@@": 4645, "漁@@": 4646, "一番": 4647, "修正": 4648, "戦国": 4649, "極めて": 4650, "93": 4651, "鋼": 4652, "しかしながら": 4653, "起源": 4654, "伊藤": 4655, "穂": 4656, "輸出": 4657, "岳": 4658, "ill@@": 4659, "変わっ": 4660, "重視": 4661, "ポル@@": 4662, "川崎": 4663, "山形": 4664, "評論": 4665, "換@@": 4666, "目指す": 4667, "両親": 4668, "ローズ": 4669, "桜@@": 4670, "弘@@": 4671, "言い@@": 4672, "ファン@@": 4673, "佐": 4674, "記し": 4675, "鶴": 4676, "越え": 4677, "宮崎": 4678, "善@@": 4679, "善": 4680, "ub@@": 4681, "広場": 4682, "少@@": 4683, "観客": 4684, "砂": 4685, "ブルー@@": 4686, "プロデュース": 4687, "ity": 4688, "まち": 4689, "見え": 4690, "モンゴル": 4691, "フィリピン": 4692, "合っ": 4693, "がる": 4694, "智": 4695, "北側": 4696, "ッグ": 4697, "ウィン@@": 4698, "敷地": 4699, "住む": 4700, "リズム": 4701, "帯@@": 4702, "ヒュー@@": 4703, "塁": 4704, "関与": 4705, "94": 4706, "とり": 4707, "校@@": 4708, "97": 4709, "占め": 4710, "ダ・@@": 4711, ";": 4712, "峠": 4713, "繋@@": 4714, "DS": 4715, "わっ": 4716, "午後": 4717, "戦艦": 4718, "グリーン": 4719, "ウクライナ": 4720, "コミック": 4721, "ツァ@@": 4722, "審": 4723, "レイ": 4724, "潮": 4725, "蒸気": 4726, "考慮": 4727, "俊@@": 4728, "ビット": 4729, "専攻": 4730, "新幹線": 4731, "学び": 4732, "こちら": 4733, "700": 4734, "シート": 4735, "費用": 4736, "切っ": 4737, "卒": 4738, "桜": 4739, "札": 4740, "休止": 4741, "双@@": 4742, "ネル": 4743, "散": 4744, "取り上げ": 4745, "イル@@": 4746, "スコットランド": 4747, "しみ": 4748, "手紙": 4749, "Windows": 4750, "コムーネ": 4751, "旨": 4752, "仏@@": 4753, "在学": 4754, "EN@@": 4755, "下げ": 4756, "セン": 4757, "材料": 4758, "落ち": 4759, "天正": 4760, "ing@@": 4761, "測定": 4762, "依存": 4763, "権力": 4764, "アート": 4765, "故障": 4766, "器@@": 4767, "ガル@@": 4768, "さえ": 4769, "79": 4770, "本拠地": 4771, "活性": 4772, "濃@@": 4773, "体重": 4774, "襲撃": 4775, "因": 4776, "インター@@": 4777, "アクション": 4778, "梅@@": 4779, "称さ": 4780, "交代": 4781, "ph@@": 4782, "描写": 4783, "解体": 4784, "老": 4785, "記憶": 4786, "渡り": 4787, "小林": 4788, "小惑星": 4789, "US@@": 4790, "敗北": 4791, "東海": 4792, "完了": 4793, "包囲": 4794, "挙": 4795, "信頼": 4796, "山脈": 4797, "越し": 4798, "批評": 4799, "そんな": 4800, "望@@": 4801, "AT": 4802, "関心": 4803, "衛": 4804, "気候": 4805, "バーグ": 4806, "フト": 4807, "押し@@": 4808, "付ける": 4809, "堀@@": 4810, "爆撃": 4811, "遺伝子": 4812, "交響": 4813, "スカ": 4814, "東側": 4815, "いき": 4816, "1933": 4817, "ステークス": 4818, "下部": 4819, "大字": 4820, "砂@@": 4821, "亀@@": 4822, "準決勝": 4823, "知る": 4824, "振り@@": 4825, "深": 4826, "外部": 4827, "豪@@": 4828, "群@@": 4829, "顧問": 4830, "料金": 4831, "半分": 4832, "進み": 4833, "かける": 4834, "限": 4835, "進化": 4836, "メール": 4837, "出馬": 4838, "神話": 4839, "マッチ": 4840, "嘉": 4841, "麗": 4842, "異なっ": 4843, "模様": 4844, "じゃ": 4845, "家臣": 4846, "かる": 4847, "庭": 4848, "講@@": 4849, "MS": 4850, "辞@@": 4851, "半ば": 4852, "ラル": 4853, "架@@": 4854, "AL@@": 4855, "巨@@": 4856, "之@@": 4857, "士官": 4858, "シング": 4859, "もともと": 4860, "エル・@@": 4861, "読み@@": 4862, "局長": 4863, "FIFA": 4864, "棒": 4865, "帳": 4866, "かかる": 4867, "湖@@": 4868, "奴隷": 4869, "温度": 4870, "警備": 4871, "肥@@": 4872, "パイロット": 4873, "フォン": 4874, "秘密": 4875, "主体": 4876, "SP@@": 4877, "ヒト": 4878, "竜@@": 4879, "温": 4880, "象徴": 4881, "称号": 4882, "説@@": 4883, "字@@": 4884, "短い": 4885, "尚": 4886, "鎖": 4887, "彩": 4888, "午前": 4889, "仲": 4890, "ちょう": 4891, "ist@@": 4892, "画像": 4893, "旅客": 4894, "夫人": 4895, "修了": 4896, "週刊": 4897, "得意": 4898, "束": 4899, "一軍": 4900, "発着": 4901, "措置": 4902, "司会": 4903, "ジェイ@@": 4904, "子孫": 4905, "夏@@": 4906, "v": 4907, "アニメーション": 4908, "効率": 4909, "ケット": 4910, "黄": 4911, "数多く": 4912, "1932": 4913, "シャー@@": 4914, "耐@@": 4915, "差し@@": 4916, "移@@": 4917, "助け": 4918, "レーション": 4919, "ネイ@@": 4920, "言及": 4921, "無く": 4922, "if@@": 4923, "単に": 4924, "クス@@": 4925, "数字": 4926, "獣": 4927, "加藤": 4928, "襲": 4929, "読@@": 4930, "単純": 4931, "トーナメント": 4932, "FA": 4933, "エア": 4934, "自衛隊": 4935, "福井": 4936, "生涯": 4937, "フィルム": 4938, "ニー・@@": 4939, "史@@": 4940, "述": 4941, "コメント": 4942, "戻り": 4943, "差別": 4944, "上海": 4945, "中期": 4946, "池@@": 4947, "公認": 4948, "討@@": 4949, "男女": 4950, "雷": 4951, "取材": 4952, "わる": 4953, "先行": 4954, "髪": 4955, "ell@@": 4956, "祖父": 4957, "再度": 4958, "1935": 4959, "託": 4960, "ob@@": 4961, "1934": 4962, "絵画": 4963, "かさ": 4964, "姿勢": 4965, "戦士": 4966, "バラ@@": 4967, "ょう": 4968, "裕@@": 4969, "力@@": 4970, "衣": 4971, "沿っ": 4972, "ムス": 4973, "フォン・@@": 4974, "鬼": 4975, "資": 4976, "落ち@@": 4977, "電動": 4978, "智@@": 4979, "寄り": 4980, "たとえば": 4981, "追放": 4982, "市街地": 4983, "ムー@@": 4984, "留学": 4985, "提携": 4986, "滞在": 4987, "暮らし": 4988, "アップ@@": 4989, "小さい": 4990, "開い": 4991, "放映": 4992, "聖書": 4993, "興味": 4994, "文学部": 4995, "徒": 4996, "ダル@@": 4997, "ハイ": 4998, "SU@@": 4999, "コミュニティ": 5000, "決まっ": 5001, "激しい": 5002, "リーダー": 5003, "機種": 5004, "計@@": 5005, "連結": 5006, "鹿": 5007, "･": 5008, "送ら": 5009, "聞い": 5010, "温@@": 5011, "総督": 5012, "帝@@": 5013, "ブス": 5014, "清水": 5015, "選抜": 5016, "防止": 5017, "ノー": 5018, "狙@@": 5019, "リード": 5020, "柳": 5021, "湯": 5022, "怪@@": 5023, "示さ": 5024, "矢": 5025, "人工": 5026, "AL": 5027, "]": 5028, "スタン": 5029, "改札": 5030, "石油": 5031, "殺し": 5032, "HI@@": 5033, "全長": 5034, "復興": 5035, "ate": 5036, "しばらく": 5037, "ミニ": 5038, "重ね": 5039, "課": 5040, "わら": 5041, "ロボット": 5042, "乗": 5043, "Pro@@": 5044, "覚@@": 5045, "仮@@": 5046, "過ごし": 5047, "父@@": 5048, "要": 5049, "範": 5050, "加工": 5051, "生じる": 5052, "推薦": 5053, "eb@@": 5054, "st": 5055, "投げ": 5056, "ノ・@@": 5057, "象": 5058, "驚@@": 5059, "せよ": 5060, "福祉": 5061, "定着": 5062, "氏@@": 5063, "SF": 5064, "次男": 5065, "意図": 5066, "RI@@": 5067, "電鉄": 5068, "訴訟": 5069, "連携": 5070, "ジャンル": 5071, "渡し": 5072, "経緯": 5073, "武田": 5074, "案内": 5075, "フランス語": 5076, "ーム@@": 5077, "操縦": 5078, "出発": 5079, "1928": 5080, "命@@": 5081, "ックス・@@": 5082, "シア@@": 5083, "はず": 5084, "新型": 5085, "人生": 5086, "言@@": 5087, "学ぶ": 5088, "資源": 5089, "飯@@": 5090, "打ち": 5091, "黄@@": 5092, "証拠": 5093, "曹@@": 5094, "曜日": 5095, "孝": 5096, "職業": 5097, "打撃": 5098, "戻る": 5099, "丁": 5100, "芸@@": 5101, "ドーム": 5102, "妙": 5103, "ねる": 5104, "牧": 5105, "申請": 5106, "儀": 5107, "なす": 5108, "コンビ": 5109, "供@@": 5110, "享": 5111, "ウィーン": 5112, "特": 5113, "合う": 5114, "収": 5115, "ジャンプ": 5116, "洲": 5117, "é@@": 5118, "アンド@@": 5119, "id": 5120, "セイ@@": 5121, "整理": 5122, "ダイヤ": 5123, "oun@@": 5124, "上部": 5125, "駅前": 5126, "柔道": 5127, "区@@": 5128, "地理": 5129, "ge": 5130, "直線": 5131, "筑@@": 5132, "瀬@@": 5133, "トラ": 5134, "どう@@": 5135, "かく": 5136, "止@@": 5137, "商店": 5138, "応": 5139, "あろ": 5140, "議席": 5141, "敬@@": 5142, "騎士": 5143, "病気": 5144, "載": 5145, "次ぐ": 5146, "AD@@": 5147, "察": 5148, "韓": 5149, "恐れ": 5150, "少将": 5151, "詞": 5152, "食べ": 5153, "折@@": 5154, "貴@@": 5155, "譲渡": 5156, "負担": 5157, "ディスク": 5158, "ミュージシャン": 5159, "等@@": 5160, "領土": 5161, "組ん": 5162, "預@@": 5163, "報じ": 5164, "ボード": 5165, "炭@@": 5166, "貯@@": 5167, "相続": 5168, "1929": 5169, "チャールズ": 5170, "俗": 5171, "召@@": 5172, "先端": 5173, "果@@": 5174, "南側": 5175, "コール": 5176, "給": 5177, "日本テレビ": 5178, "打点": 5179, "レオ@@": 5180, "イエ@@": 5181, "レコーディング": 5182, "群馬": 5183, "編曲": 5184, "次いで": 5185, "大使": 5186, "ベルギー": 5187, "ライ": 5188, "許さ": 5189, "!!": 5190, "献@@": 5191, "氷": 5192, "裕": 5193, "演@@": 5194, "手術": 5195, "取り入れ": 5196, "援助": 5197, "1931": 5198, "ers": 5199, "住居": 5200, "著": 5201, "違反": 5202, "辞任": 5203, "フィル@@": 5204, "音声": 5205, "帰還": 5206, "暗殺": 5207, "板@@": 5208, "げ@@": 5209, "スケート": 5210, "順位": 5211, "分岐": 5212, "保守": 5213, "um": 5214, "脈": 5215, "任意": 5216, "湯@@": 5217, "伴っ": 5218, "スル@@": 5219, "任@@": 5220, "良く": 5221, "ラク@@": 5222, "任じ": 5223, "大和": 5224, "却": 5225, "昇@@": 5226, "降伏": 5227, "滅": 5228, "如@@": 5229, "下り": 5230, "貴": 5231, "邸": 5232, "ie": 5233, "大手": 5234, "イン・@@": 5235, "奈@@": 5236, "教皇": 5237, "記@@": 5238, "池田": 5239, "岐": 5240, "ワイン": 5241, "倉@@": 5242, "ヴァル@@": 5243, "来日": 5244, "霊@@": 5245, "導@@": 5246, "緊急": 5247, "館@@": 5248, "ミス": 5249, "呼び": 5250, "確定": 5251, "寝@@": 5252, "ゆう": 5253, "劣@@": 5254, "移民": 5255, "ブルー": 5256, "渡辺": 5257, "失わ": 5258, "トン@@": 5259, "トレー@@": 5260, "雄@@": 5261, "平安": 5262, "深く": 5263, "需要": 5264, "読み": 5265, "当主": 5266, "ドライバー": 5267, "換え": 5268, "デンマーク": 5269, "退団": 5270, "駒": 5271, "作者": 5272, "接触": 5273, "柳@@": 5274, "分裂": 5275, "最近": 5276, "井上": 5277, "部品": 5278, "ロバート": 5279, "デー": 5280, "功績": 5281, "起こる": 5282, "致": 5283, "摂@@": 5284, "ジ・@@": 5285, "請@@": 5286, "オール@@": 5287, "バード": 5288, "在住": 5289, "新規": 5290, "弁@@": 5291, "プール": 5292, "[": 5293, "破り": 5294, "ソウル": 5295, "因@@": 5296, "やっ": 5297, "到達": 5298, "ion@@": 5299, "後方": 5300, "誠": 5301, "it": 5302, "歩@@": 5303, "一環": 5304, "既存": 5305, "恵@@": 5306, "牛@@": 5307, "振興": 5308, "ョ@@": 5309, "組み": 5310, "学術": 5311, "ティブ": 5312, "災害": 5313, "発揮": 5314, "優先": 5315, "分解": 5316, "西日本": 5317, "ベイ@@": 5318, "コミ@@": 5319, "DE@@": 5320, "自社": 5321, "子ども": 5322, "離": 5323, "ステーション": 5324, "渋谷": 5325, "すぎ": 5326, "犯": 5327, "現れる": 5328, "絵@@": 5329, "印@@": 5330, "カス": 5331, "婦": 5332, "一連": 5333, "カッ@@": 5334, "須@@": 5335, "転じ": 5336, "四国": 5337, "とる": 5338, "合同": 5339, "どこ": 5340, "独": 5341, "爆": 5342, "ガラス": 5343, "北朝鮮": 5344, "盗@@": 5345, "大阪@@": 5346, "基づき": 5347, "厳@@": 5348, "退職": 5349, "長年": 5350, "切": 5351, "ハー": 5352, "晋": 5353, "ペル@@": 5354, "1924": 5355, "糸": 5356, "買@@": 5357, "親王": 5358, "走@@": 5359, "模@@": 5360, "続@@": 5361, "準@@": 5362, "以内": 5363, "欧": 5364, "次々": 5365, "トーク": 5366, "ルド@@": 5367, "ビュー@@": 5368, "毎日": 5369, "テク@@": 5370, "保障": 5371, "ゴルフ": 5372, "宋": 5373, "戦時": 5374, "発掘": 5375, "sh@@": 5376, "抑え": 5377, "硬@@": 5378, "替": 5379, "ay@@": 5380, "富": 5381, "争@@": 5382, "上演": 5383, "1927": 5384, "酵素": 5385, "占める": 5386, "継ぎ": 5387, "抗@@": 5388, "幹部": 5389, "家督": 5390, "マル": 5391, "ゲル": 5392, "イラン": 5393, "線路": 5394, "強力": 5395, "ミー@@": 5396, "コピー": 5397, "水素": 5398, "液": 5399, "白い": 5400, "120": 5401, "ブラック": 5402, "収集": 5403, "アイテム": 5404, "流通": 5405, "生き": 5406, "レス@@": 5407, "一切": 5408, "に際して": 5409, "ッジ": 5410, "奪@@": 5411, "代理": 5412, "当日": 5413, "歴": 5414, "ールズ": 5415, "脱出": 5416, "バッハ": 5417, "ショップ": 5418, "ON@@": 5419, "郊外": 5420, "オブ": 5421, "情@@": 5422, "同期": 5423, "クラ": 5424, "随@@": 5425, "輝@@": 5426, "祈@@": 5427, "通る": 5428, "確@@": 5429, "平日": 5430, "入手": 5431, "読": 5432, "訴え": 5433, "嫌@@": 5434, "問わ": 5435, "プス": 5436, "株式": 5437, "又は": 5438, "セント": 5439, "アカ@@": 5440, "急速": 5441, "ミル@@": 5442, "魔法": 5443, "和歌山": 5444, "承": 5445, "後者": 5446, "推測": 5447, "東映": 5448, "リアル": 5449, "複合": 5450, "近郊": 5451, "En@@": 5452, "ナス": 5453, "提唱": 5454, "インディアン": 5455, "銅": 5456, "答": 5457, "種@@": 5458, "連覇": 5459, "栃木": 5460, "勃発": 5461, "コンセプト": 5462, "巡洋艦": 5463, "アメリカ@@": 5464, "のに": 5465, "肉@@": 5466, "脇": 5467, "ニン@@": 5468, "原題": 5469, "区画": 5470, "住": 5471, "陳": 5472, "列@@": 5473, "盛@@": 5474, "亜@@": 5475, "－": 5476, "話@@": 5477, "稿": 5478, "クラシック": 5479, "沢@@": 5480, "働い": 5481, "軒": 5482, "1925": 5483, "台車": 5484, "がり": 5485, "5000": 5486, "デス": 5487, "症状": 5488, "農": 5489, "一家": 5490, "答え": 5491, "耳": 5492, "純@@": 5493, "創@@": 5494, "つく": 5495, "安打": 5496, "悩@@": 5497, "あい": 5498, "記号": 5499, "ミュ@@": 5500, "国土": 5501, "立候補": 5502, "絶対": 5503, "1923": 5504, "SC": 5505, "優秀": 5506, "始@@": 5507, "資産": 5508, "タール": 5509, "早稲田大学": 5510, "中央@@": 5511, "僧": 5512, "陵": 5513, "複@@": 5514, "修道院": 5515, "見解": 5516, "伝承": 5517, "ハリ@@": 5518, "インターチェンジ": 5519, "印刷": 5520, "解析": 5521, "クロス": 5522, "当該": 5523, "自殺": 5524, "泰": 5525, "賛": 5526, "邦@@": 5527, "義務": 5528, "監視": 5529, "落とし": 5530, "康@@": 5531, "守護": 5532, "エンディング": 5533, "証券": 5534, "大隊": 5535, "ライセンス": 5536, "痛@@": 5537, "ジャズ": 5538, "禁@@": 5539, "作り@@": 5540, "支部": 5541, "同月": 5542, "双方": 5543, "隔@@": 5544, "ter@@": 5545, "屋敷": 5546, "チェコ": 5547, "イラスト": 5548, "ブレイ@@": 5549, "麻": 5550, "成分": 5551, "アダ@@": 5552, "諸@@": 5553, "抗議": 5554, "番@@": 5555, "該当": 5556, "いえる": 5557, "MI@@": 5558, "岩手": 5559, "ib@@": 5560, "代わっ": 5561, "死ん": 5562, "あらゆる": 5563, "浦@@": 5564, "250": 5565, "演技": 5566, "大名": 5567, "消防": 5568, "少なくとも": 5569, "淡@@": 5570, "扱わ": 5571, "原子力": 5572, "ペン": 5573, "湿@@": 5574, "上がり": 5575, "ユ": 5576, "我@@": 5577, "少数": 5578, "装@@": 5579, "ピー": 5580, "LI@@": 5581, "想定": 5582, "伊勢": 5583, "雅@@": 5584, "挙@@": 5585, "uc@@": 5586, "|": 5587, "悲@@": 5588, "勝ち@@": 5589, "奥": 5590, "前期": 5591, "男@@": 5592, "参議院": 5593, "恩@@": 5594, "過": 5595, "スケ@@": 5596, "Am@@": 5597, "評": 5598, "インチ": 5599, "アルバ@@": 5600, "渡": 5601, "バスケットボール": 5602, "議@@": 5603, "摩@@": 5604, "主導": 5605, "%@@": 5606, "師事": 5607, "モニ@@": 5608, "ik@@": 5609, "SE@@": 5610, "球場": 5611, "女王": 5612, "財産": 5613, "サン・@@": 5614, "司教": 5615, "1918": 5616, "体系": 5617, "パート": 5618, "賀@@": 5619, "ムズ": 5620, "雇用": 5621, "抗": 5622, "和田": 5623, "猫": 5624, "エド@@": 5625, "ストリート": 5626, "ごく": 5627, "包@@": 5628, "准": 5629, "漢字": 5630, "フィンランド": 5631, "加わっ": 5632, "共有": 5633, "敗退": 5634, "佐賀": 5635, "ケル@@": 5636, "方言": 5637, "投稿": 5638, "脱退": 5639, "促進": 5640, "AN": 5641, "ポンド": 5642, "テイ@@": 5643, "コレクション": 5644, "タッグ": 5645, "煙": 5646, "ピエ@@": 5647, "盛り@@": 5648, "尊@@": 5649, "コスト": 5650, "アム@@": 5651, "審議": 5652, "掲げ": 5653, "働き": 5654, "規@@": 5655, "除き": 5656, "往復": 5657, "遠": 5658, "シリア": 5659, "ゼン@@": 5660, "助教授": 5661, "今後": 5662, "一帯": 5663, "回っ": 5664, "est@@": 5665, "損害": 5666, "1919": 5667, "配備": 5668, "実績": 5669, "巨人": 5670, "処刑": 5671, "仕え": 5672, "スポンサー": 5673, "なん@@": 5674, "キロメートル": 5675, "サル": 5676, "遇": 5677, "修理": 5678, "衛門": 5679, "貞@@": 5680, "屋根": 5681, "LE@@": 5682, "観察": 5683, "社名": 5684, "滝": 5685, "火災": 5686, "ジェームズ": 5687, "参考": 5688, "モノ@@": 5689, "国外": 5690, "セレ@@": 5691, "繁殖": 5692, "余": 5693, "イェ@@": 5694, "毛@@": 5695, "坊": 5696, "隣": 5697, "撤去": 5698, "学区": 5699, "操@@": 5700, "恐@@": 5701, "着用": 5702, "AC": 5703, "ガル": 5704, "船団": 5705, "ピン": 5706, "ad": 5707, "魏": 5708, "手がけ": 5709, "バーン": 5710, "III": 5711, "ニン": 5712, "若": 5713, "終戦": 5714, "one": 5715, "魂": 5716, "局@@": 5717, "王朝": 5718, "駐": 5719, "併@@": 5720, "1926": 5721, "芳@@": 5722, "スリ@@": 5723, "攻略": 5724, "月末": 5725, "態": 5726, "粒子": 5727, "ヤマ@@": 5728, "シカゴ": 5729, "仲@@": 5730, "事例": 5731, "ハン": 5732, "純": 5733, "ギー": 5734, "時計": 5735, "ボーカル": 5736, "用途": 5737, "広い": 5738, "握@@": 5739, "夕@@": 5740, "亡くなっ": 5741, "ST": 5742, "終わる": 5743, "ざる": 5744, "ウェル@@": 5745, "縮": 5746, "移っ": 5747, "ラグビー": 5748, "カウン@@": 5749, "惑": 5750, "台風": 5751, "戦前": 5752, "九@@": 5753, "喫し": 5754, "総称": 5755, "通う": 5756, "漢@@": 5757, "ゲーム@@": 5758, "桁": 5759, "リュー@@": 5760, "続編": 5761, "山梨": 5762, "テニス": 5763, "フォル@@": 5764, "アレクサン@@": 5765, "UEFA": 5766, "業@@": 5767, "破": 5768, "巡": 5769, "体育": 5770, "捕虜": 5771, "診断": 5772, "虎": 5773, "砦": 5774, "独特": 5775, "挙げる": 5776, "出典": 5777, "省@@": 5778, "持": 5779, "ゲート": 5780, "og@@": 5781, "パワー": 5782, "頭部": 5783, "試作": 5784, "ストロ@@": 5785, "社員": 5786, "魚雷": 5787, "爆弾": 5788, "レーター": 5789, "競争": 5790, "附属": 5791, "掘@@": 5792, "ゅ@@": 5793, "約束": 5794, "解消": 5795, "後任": 5796, "1922": 5797, "宣": 5798, "出来事": 5799, "やす": 5800, "アマチュア": 5801, "決": 5802, "殻": 5803, "アンド・@@": 5804, "日常": 5805, "侵入": 5806, "Bl@@": 5807, "バラエティ": 5808, "掛@@": 5809, "竣工": 5810, "きょう": 5811, "短": 5812, "浄@@": 5813, "主流": 5814, "マリア": 5815, "並行": 5816, "MA": 5817, "ゆき": 5818, "行なわ": 5819, "肩": 5820, "王子": 5821, "有限": 5822, "開拓": 5823, "氷@@": 5824, "ant@@": 5825, "月刊": 5826, "代替": 5827, "言える": 5828, "オープニング": 5829, "覆@@": 5830, "触@@": 5831, "Su@@": 5832, "昭": 5833, "AM": 5834, "トム": 5835, "違う": 5836, "のり": 5837, "協@@": 5838, "誘導": 5839, "とも@@": 5840, "行なっ": 5841, "宣伝": 5842, "並ん": 5843, "団@@": 5844, "駆動": 5845, "例外": 5846, "別名": 5847, "乗っ": 5848, "たく": 5849, "毎": 5850, "寧": 5851, "砲@@": 5852, "Con@@": 5853, "大震災": 5854, "粉": 5855, "適切": 5856, "詩人": 5857, "エレ@@": 5858, "富士": 5859, "攻": 5860, "偽@@": 5861, "ジャケット": 5862, "ユーロ": 5863, "足利": 5864, "参": 5865, "油@@": 5866, "？": 5867, "トリック": 5868, "エース": 5869, "出席": 5870, "近隣": 5871, "首@@": 5872, "謎": 5873, "込め": 5874, "言え": 5875, "簡単": 5876, "協": 5877, "玄": 5878, "鹿@@": 5879, "3000": 5880, "告@@": 5881, "与@@": 5882, "圧力": 5883, "ボタン": 5884, "ブレー@@": 5885, "走る": 5886, "大佐": 5887, "軍隊": 5888, "西洋": 5889, "直通": 5890, "アブ@@": 5891, "緑@@": 5892, "交": 5893, "アス@@": 5894, "チン@@": 5895, "張@@": 5896, "短編": 5897, "アルゼンチン": 5898, "プロイセン": 5899, "罰": 5900, "証言": 5901, "―": 5902, "死刑": 5903, "ミッション": 5904, "ハイム": 5905, "デモ": 5906, "授業": 5907, "タンパク質": 5908, "CA": 5909, "上流": 5910, "及ぶ": 5911, "異常": 5912, "チャン": 5913, "襲@@": 5914, "塗@@": 5915, "引き": 5916, "肢": 5917, "座席": 5918, "期限": 5919, "カレッジ": 5920, "経路": 5921, "特性": 5922, "導": 5923, "KO": 5924, "要因": 5925, "レール": 5926, "柔@@": 5927, "\"（": 5928, "ませ": 5929, "締@@": 5930, "薄@@": 5931, "痛": 5932, "ent": 5933, "故@@": 5934, "室@@": 5935, "兼@@": 5936, "固": 5937, "ミッド@@": 5938, "高知": 5939, "烈": 5940, "ヒル": 5941, "当局": 5942, "かかっ": 5943, "密度": 5944, "慶長": 5945, "占@@": 5946, "ビジョン": 5947, "跡地": 5948, "合戦": 5949, "破っ": 5950, "オスマン": 5951, "成果": 5952, "おこ@@": 5953, "停@@": 5954, "ニャ@@": 5955, "築": 5956, "題材": 5957, "慶@@": 5958, "バイパス": 5959, "嶋": 5960, "全域": 5961, "アス": 5962, "聖堂": 5963, "戦う": 5964, "入力": 5965, "栗@@": 5966, "ボン@@": 5967, "乗り": 5968, "駅@@": 5969, "上野": 5970, "グロー@@": 5971, "阪": 5972, "ちなみに": 5973, "話し": 5974, "メッセージ": 5975, "享年": 5976, "ノルウェー": 5977, "孝@@": 5978, "茂@@": 5979, "応援": 5980, "就@@": 5981, "テレビ朝日": 5982, "金沢": 5983, "離婚": 5984, "平野": 5985, "コス": 5986, "毒": 5987, "拠": 5988, "泉@@": 5989, "ネタ": 5990, "ラル@@": 5991, "殖": 5992, "私立": 5993, "1921": 5994, "res@@": 5995, "非難": 5996, "高級": 5997, "発明": 5998, "中将": 5999, "選定": 6000, "梁": 6001, "実用": 6002, "ケン": 6003, "北条": 6004, "屈@@": 6005, "地形": 6006, "ase": 6007, "郭": 6008, "それでも": 6009, "ボクシング": 6010, "植@@": 6011, "桃@@": 6012, "すら": 6013, "捨て": 6014, "じん": 6015, "こうして": 6016, "自民党": 6017, "射撃": 6018, "ルイ": 6019, "マイナー": 6020, "担@@": 6021, "ey": 6022, "ヤード": 6023, "かす": 6024, "キャンパス": 6025, "di@@": 6026, "ダル": 6027, "ヘンリー": 6028, "決意": 6029, "ロゴ": 6030, "また@@": 6031, "bo@@": 6032, "端末": 6033, "戦力": 6034, "質量": 6035, "上下": 6036, "誤@@": 6037, "ラッ@@": 6038, "再現": 6039, "AP@@": 6040, "壊@@": 6041, "拡@@": 6042, "図る": 6043, "甘@@": 6044, "果": 6045, "ジム": 6046, "ともに": 6047, "念@@": 6048, "不動産": 6049, "慣@@": 6050, "指し": 6051, "結び": 6052, "損傷": 6053, "再編": 6054, "オーディション": 6055, "茎": 6056, "ホ": 6057, "巻@@": 6058, "海洋": 6059, "流域": 6060, "来る": 6061, "禁": 6062, "ウッド": 6063, "募集": 6064, "護@@": 6065, "犠牲": 6066, "繰り@@": 6067, "認": 6068, "無かっ": 6069, "権限": 6070, "厚": 6071, "世界中": 6072, "言い": 6073, "男爵": 6074, "駐@@": 6075, "LO@@": 6076, "基盤": 6077, "解除": 6078, "提示": 6079, "委託": 6080, "バリ@@": 6081, "略@@": 6082, "崩@@": 6083, "ポスト": 6084, "マイケル": 6085, "アラビア": 6086, "したがって": 6087, "ビン@@": 6088, "不詳": 6089, "書店": 6090, "手掛け": 6091, "しま": 6092, "サウンド": 6093, "はじ@@": 6094, "衣@@": 6095, "az@@": 6096, "紛争": 6097, "監@@": 6098, "モア": 6099, "天文": 6100, "ペー@@": 6101, "ゼル@@": 6102, "シス": 6103, "連勝": 6104, "ソン・@@": 6105, "勤": 6106, "並@@": 6107, "店@@": 6108, "北米": 6109, "陰": 6110, "応用": 6111, "最低": 6112, "ユース": 6113, "FI@@": 6114, "オブ・@@": 6115, "一員": 6116, "降格": 6117, "難しい": 6118, "教員": 6119, "掲@@": 6120, "テキサス": 6121, "フランク": 6122, "倒@@": 6123, "織@@": 6124, "ソース": 6125, "ルイ@@": 6126, "益": 6127, "打者": 6128, "1914": 6129, "けん@@": 6130, "ワー": 6131, "三振": 6132, "ぞ": 6133, "ジン@@": 6134, "通行": 6135, "未満": 6136, "派生": 6137, "当たる": 6138, "敷": 6139, "舞": 6140, "テロ": 6141, "トス": 6142, "ぷ@@": 6143, "アメリカン": 6144, "がん": 6145, "申し@@": 6146, "1917": 6147, "課@@": 6148, "桂": 6149, "三菱@@": 6150, "アム": 6151, "キャスト": 6152, "パフォーマンス": 6153, "ところが": 6154, "本土": 6155, "燃@@": 6156, "戦っ": 6157, "課題": 6158, "殺さ": 6159, "快": 6160, "運航": 6161, "示唆": 6162, "ran@@": 6163, "本体": 6164, "リスク": 6165, "あら@@": 6166, "BO@@": 6167, "AI@@": 6168, "買い@@": 6169, "去": 6170, "みる": 6171, "食べる": 6172, "揃@@": 6173, "AV": 6174, "町名": 6175, "メディ@@": 6176, "コ・@@": 6177, "人種": 6178, "ベ": 6179, "表し": 6180, "疾患": 6181, "空母": 6182, "退任": 6183, "ウォル@@": 6184, "経過": 6185, "斎": 6186, "織田": 6187, "爆@@": 6188, "迫": 6189, "シナ@@": 6190, "評し": 6191, "銀@@": 6192, "幹": 6193, "度@@": 6194, "マラ@@": 6195, "カ・@@": 6196, "さら@@": 6197, "艦@@": 6198, "取り付け": 6199, "全面": 6200, "文明": 6201, "憲@@": 6202, "大将": 6203, "接近": 6204, "振り": 6205, "君主": 6206, "駐車": 6207, "して": 6208, "陰@@": 6209, "パターン": 6210, "エス@@": 6211, "称@@": 6212, "スミス": 6213, "武将": 6214, "炭素": 6215, "』@@": 6216, "ホワイト": 6217, "丹@@": 6218, "存続": 6219, "快@@": 6220, "置@@": 6221, "置き": 6222, "ついに": 6223, "逃@@": 6224, "秦": 6225, "商人": 6226, "まさ": 6227, "闘@@": 6228, "支え": 6229, ":@@": 6230, "ュー@@": 6231, "逆@@": 6232, "道具": 6233, "亭": 6234, "ヘッド": 6235, "1912": 6236, "幼少": 6237, "意思": 6238, "ive": 6239, "造船": 6240, "会見": 6241, "先頭": 6242, "いち@@": 6243, "プル@@": 6244, "ヴォル@@": 6245, "司法": 6246, "滑@@": 6247, "グレー@@": 6248, "アラブ": 6249, "州@@": 6250, "壇": 6251, "山地": 6252, "吹き@@": 6253, "僕": 6254, "1900": 6255, "回数": 6256, "攻@@": 6257, "オペ@@": 6258, "Ph@@": 6259, "現行": 6260, "洞": 6261, "主題": 6262, "ot": 6263, "しれ": 6264, "誇@@": 6265, "ペット": 6266, "育": 6267, "詩@@": 6268, "稼@@": 6269, "空襲": 6270, "反発": 6271, "とか": 6272, "発音": 6273, "官僚": 6274, "ろう": 6275, "セルビア": 6276, "葛@@": 6277, "故郷": 6278, "建立": 6279, "冒険": 6280, "]@@": 6281, "リーズ": 6282, "秀吉": 6283, "けい": 6284, "突き@@": 6285, "ふ": 6286, "for": 6287, "ジャック": 6288, "航海": 6289, "デル": 6290, "没@@": 6291, "ほ": 6292, "レンス": 6293, "松平": 6294, "チャ": 6295, "映@@": 6296, "静": 6297, "数々": 6298, "ボス": 6299, "びる": 6300, "se": 6301, "平方": 6302, "まら": 6303, "1910": 6304, "感情": 6305, "人数": 6306, "《": 6307, "オンライン": 6308, "De@@": 6309, "実装": 6310, "タンク": 6311, "反映": 6312, "不満": 6313, "信じ": 6314, "Cl@@": 6315, "判": 6316, "クリア": 6317, "当て": 6318, "合わ": 6319, "祭り": 6320, "奈": 6321, "旅@@": 6322, "リック": 6323, "モール": 6324, "移し": 6325, "送り": 6326, "やすく": 6327, "史料": 6328, "：\"": 6329, "旅団": 6330, "コレ@@": 6331, "させ": 6332, "パーソナリティ": 6333, "相談": 6334, "事前": 6335, "炉": 6336, "広がっ": 6337, "相対": 6338, "邦": 6339, "迷@@": 6340, "もし": 6341, "中山": 6342, "ボックス": 6343, "フリ@@": 6344, "仮": 6345, "ジェン@@": 6346, "』（": 6347, "うる": 6348, "ールド": 6349, "ter": 6350, "伝える": 6351, "歌っ": 6352, "必ず": 6353, "スターズ": 6354, "づけ": 6355, "防ぐ": 6356, "ore": 6357, "遺体": 6358, "休": 6359, "篇": 6360, "印象": 6361, "リニューアル": 6362, "MC": 6363, "丹": 6364, "sp@@": 6365, "関わっ": 6366, "ow": 6367, "失": 6368, "曖昧": 6369, "出資": 6370, "騒@@": 6371, "BE@@": 6372, "昔": 6373, "秘@@": 6374, "一貫": 6375, "やま": 6376, "レストラン": 6377, "勲": 6378, "にわたり": 6379, "移管": 6380, "合唱": 6381, "奏@@": 6382, "SI@@": 6383, "》": 6384, "ブーム": 6385, "ターン": 6386, "おお": 6387, "検出": 6388, "売上": 6389, "動員": 6390, "ターミナル": 6391, "鳥取": 6392, "主題歌": 6393, "鉱@@": 6394, "岡田": 6395, "埋葬": 6396, "トライ@@": 6397, "シャ": 6398, "尊": 6399, "務@@": 6400, "同名": 6401, "くし": 6402, "接し": 6403, "ヴァイ@@": 6404, "べる": 6405, "尚@@": 6406, "特許": 6407, "信長": 6408, "敗戦": 6409, "ストー@@": 6410, "除": 6411, "愛媛": 6412, "まさ@@": 6413, "雨@@": 6414, "要塞": 6415, "まと@@": 6416, "亡命": 6417, "突破": 6418, "リウス": 6419, "ich@@": 6420, "ice": 6421, "上り": 6422, "厳しい": 6423, "マン・@@": 6424, "リ・@@": 6425, "グランド": 6426, "メリ@@": 6427, "キャンプ": 6428, "監": 6429, "移り": 6430, "まい": 6431, "伸び": 6432, "本編": 6433, "コア": 6434, "サブ": 6435, "水道": 6436, "ちなん": 6437, "打ち上げ": 6438, "フットボール": 6439, "やし": 6440, "家康": 6441, "乗客": 6442, "銀河": 6443, "署名": 6444, "送り@@": 6445, "敬": 6446, "押し": 6447, "評議": 6448, "線@@": 6449, "ディレクター": 6450, "辺@@": 6451, "正規": 6452, "節@@": 6453, "終結": 6454, "攻め": 6455, "塾": 6456, "ラウンド": 6457, "モチーフ": 6458, "制し": 6459, "被": 6460, "扱っ": 6461, "鉱山": 6462, "教室": 6463, "送信": 6464, "最新": 6465, "校舎": 6466, "晴@@": 6467, "囲@@": 6468, "一旦": 6469, "バレーボール": 6470, "亀": 6471, "訳@@": 6472, "怪我": 6473, "シュタイン": 6474, "斉": 6475, "簡@@": 6476, "ne": 6477, "ローカル": 6478, "受信": 6479, "海峡": 6480, "鉱": 6481, "若手": 6482, "抱え": 6483, "去っ": 6484, "職@@": 6485, "騎兵": 6486, "ワル@@": 6487, ">@@": 6488, "ゥ": 6489, "塗装": 6490, "Par@@": 6491, "フー@@": 6492, "低く": 6493, "バイ": 6494, "天体": 6495, "夜間": 6496, "請求": 6497, "est": 6498, "ゲン@@": 6499, "選ん": 6500, "イラク": 6501, "WA": 6502, "放棄": 6503, "憲": 6504, "起こす": 6505, "素材": 6506, "日記": 6507, "尽@@": 6508, "唐@@": 6509, "ミア": 6510, "天然": 6511, "新田": 6512, "創作": 6513, "晩年": 6514, "いし": 6515, "per@@": 6516, "all@@": 6517, "AR": 6518, "院@@": 6519, "割合": 6520, "検": 6521, "小さく": 6522, "ケイ@@": 6523, "トレード": 6524, "CI@@": 6525, "１": 6526, "次に": 6527, "演じる": 6528, "獄": 6529, "活@@": 6530, "接": 6531, "レーダー": 6532, "暫定": 6533, "会館": 6534, "刻": 6535, "顕@@": 6536, "この間": 6537, "os": 6538, "蘭": 6539, "王位": 6540, "ry": 6541, "削減": 6542, "ヒル@@": 6543, "オーバー": 6544, "ud@@": 6545, "モル@@": 6546, "農民": 6547, "ハワイ": 6548, "笑@@": 6549, "並ぶ": 6550, "切れ": 6551, "あき": 6552, "チェン@@": 6553, "前提": 6554, "避難": 6555, "補給": 6556, "気温": 6557, "補": 6558, "ヘイ@@": 6559, "帰っ": 6560, "想@@": 6561, "パソコン": 6562, "架空": 6563, "もたらし": 6564, "東洋": 6565, "制覇": 6566, "結び@@": 6567, "染@@": 6568, "養成": 6569, "火山": 6570, "乳": 6571, "復": 6572, "キャラ": 6573, "甲板": 6574, "勲章": 6575, "滋賀": 6576, "庄": 6577, "往@@": 6578, "督": 6579, "人形": 6580, "貫": 6581, "スコット": 6582, "イスラム": 6583, "号機": 6584, "グラフ": 6585, "イヤー": 6586, "ect@@": 6587, "注": 6588, "暴力": 6589, "借@@": 6590, "動力": 6591, "キロ": 6592, "寒@@": 6593, "奉行": 6594, "バトル": 6595, "ight": 6596, "胸": 6597, "接する": 6598, "グラム": 6599, "若者": 6600, "芝": 6601, "シンガポール": 6602, "トリー": 6603, "緩@@": 6604, "国防": 6605, "MO@@": 6606, "始": 6607, "ボイ@@": 6608, "にあたり": 6609, "森林": 6610, "地図": 6611, "貧@@": 6612, "デザイナー": 6613, "アミ@@": 6614, "アイス@@": 6615, "ザン": 6616, "パッケージ": 6617, "ナン": 6618, "埋@@": 6619, "とど@@": 6620, "エディ@@": 6621, "転向": 6622, "疑問": 6623, "AK@@": 6624, "紋": 6625, "満州": 6626, "確率": 6627, "ッキー": 6628, "ボー": 6629, "敷@@": 6630, "固有": 6631, "飼育": 6632, "ベン": 6633, "関わる": 6634, "徴@@": 6635, "部族": 6636, "フィー@@": 6637, "読者": 6638, "ノール": 6639, "フライ": 6640, "侍": 6641, "剛": 6642, "観点": 6643, "船舶": 6644, "ジェット": 6645, "陥落": 6646, "io": 6647, "遂げ": 6648, "北方": 6649, "管区": 6650, "DO@@": 6651, "修士": 6652, "終盤": 6653, "衡": 6654, "ニュージーランド": 6655, "関わら": 6656, "樹@@": 6657, "貨": 6658, "危@@": 6659, "奏者": 6660, "化合": 6661, "悪い": 6662, "Sc@@": 6663, "細": 6664, "背": 6665, "練": 6666, "いか@@": 6667, "図っ": 6668, "頻繁": 6669, "都道府県": 6670, "ドラゴン": 6671, "自主": 6672, "室町": 6673, "妃": 6674, "麓": 6675, "認知": 6676, "通し": 6677, "拝": 6678, "課長": 6679, "役員": 6680, "法学部": 6681, "初演": 6682, "落語": 6683, "訴": 6684, "共産": 6685, "根拠": 6686, "ハッ@@": 6687, "思う": 6688, "府@@": 6689, "ブック": 6690, "TI@@": 6691, "英雄": 6692, "団地": 6693, "やり@@": 6694, "依@@": 6695, "プロセス": 6696, "一体": 6697, "品@@": 6698, "毒@@": 6699, "香川": 6700, "宮殿": 6701, "ボディ": 6702, "スマ@@": 6703, "ックス@@": 6704, "失点": 6705, "縮小": 6706, "移植": 6707, "短縮": 6708, "チ・@@": 6709, "ゼロ": 6710, "食事": 6711, "市町村": 6712, "カロ@@": 6713, "1913": 6714, "通じ": 6715, "age": 6716, "キング@@": 6717, "挑@@": 6718, "ハム": 6719, "音源": 6720, "ヘビー": 6721, "配給": 6722, "判@@": 6723, "行列": 6724, "突然": 6725, "アプリケーション": 6726, "リート": 6727, "インドネシア": 6728, "装着": 6729, "癌": 6730, "いた@@": 6731, "抜け": 6732, "放出": 6733, "ニア@@": 6734, "松山": 6735, "ターズ": 6736, "メダル": 6737, "1911": 6738, "筒": 6739, "ポーター": 6740, "あなた": 6741, "ナチス": 6742, "彫刻": 6743, "艦長": 6744, "至@@": 6745, "権@@": 6746, "DI@@": 6747, "/@@": 6748, "高齢": 6749, "いけ": 6750, "太田": 6751, "出土": 6752, "余儀なく": 6753, "ナショナル": 6754, "剣@@": 6755, "校長": 6756, "送る": 6757, "俊": 6758, "しん@@": 6759, "あわせ": 6760, "関西@@": 6761, "軟@@": 6762, "支店": 6763, "フレーム": 6764, "従業": 6765, "欧米": 6766, "もり": 6767, "トー": 6768, "われ": 6769, "掃@@": 6770, "助手": 6771, "段@@": 6772, "こく": 6773, "ヴィー@@": 6774, "着陸": 6775, "ライダー": 6776, "中野": 6777, "ドライブ": 6778, "喫@@": 6779, "ルー": 6780, "俳@@": 6781, "ミュージカル": 6782, "回収": 6783, "オーケストラ": 6784, "下し": 6785, "では": 6786, "育て": 6787, "SP": 6788, "頂": 6789, "開館": 6790, "令和": 6791, "履@@": 6792, "ウンド": 6793, "迎える": 6794, "健": 6795, "恋愛": 6796, "含@@": 6797, "抜き": 6798, "（,": 6799, "ナンバー": 6800, "ショー@@": 6801, "働く": 6802, "スピード": 6803, "ブラウン": 6804, "ぼ": 6805, "浪@@": 6806, "赤い": 6807, "ライバル": 6808, "司馬": 6809, "将棋": 6810, "免@@": 6811, "中島": 6812, "フィギュア": 6813, "GH@@": 6814, "鑑": 6815, "違@@": 6816, "許@@": 6817, "直し": 6818, "弥@@": 6819, "趙": 6820, "海戦": 6821, "コート": 6822, "110": 6823, "沼@@": 6824, "土曜": 6825, "ミル": 6826, "黒人": 6827, "狂@@": 6828, "楽団": 6829, "排除": 6830, "若干": 6831, "小規模": 6832, "end@@": 6833, "夫婦": 6834, "電波": 6835, "調べ": 6836, "Ex@@": 6837, "出会い": 6838, "シップ": 6839, "逆転": 6840, "装飾": 6841, "Re@@": 6842, "済@@": 6843, "えん": 6844, "AG@@": 6845, "ミング": 6846, "強調": 6847, "傷@@": 6848, "トン・@@": 6849, "降": 6850, "ッター": 6851, "囲ま": 6852, "Le@@": 6853, "折り@@": 6854, "ブログ": 6855, "トマ@@": 6856, "贈@@": 6857, "近鉄": 6858, "航路": 6859, "サウルス": 6860, "大橋": 6861, "フォーク": 6862, "ファミリー": 6863, "売り上げ": 6864, "テレビ@@": 6865, "飛": 6866, "詰@@": 6867, "シナリオ": 6868, "慰@@": 6869, "原理": 6870, "上がる": 6871, "設@@": 6872, "太平洋戦争": 6873, "集まっ": 6874, "ゴル@@": 6875, "木村": 6876, "パートナー": 6877, "レ・@@": 6878, "飾っ": 6879, "負っ": 6880, "\"、": 6881, "テープ": 6882, "フロント": 6883, "改": 6884, "毛利": 6885, "LE": 6886, "?": 6887, "ヌ・@@": 6888, "ケーブル": 6889, "担っ": 6890, "ウェア": 6891, "回路": 6892, "all": 6893, "泊": 6894, "メス": 6895, "ベイ": 6896, "裂": 6897, "東方": 6898, "噴@@": 6899, "モンスター": 6900, "ツ・@@": 6901, "ゾーン": 6902, "作中": 6903, "上院": 6904, "一度": 6905, "意向": 6906, "彦@@": 6907, "ひろ": 6908, "ベネ@@": 6909, "景@@": 6910, "将@@": 6911, "途": 6912, "ort@@": 6913, "ニュ": 6914, "ok@@": 6915, "行事": 6916, "ME": 6917, "別に": 6918, "恒@@": 6919, "婚": 6920, "緒": 6921, "委@@": 6922, "起点": 6923, "マスター": 6924, "国有": 6925, "豊富": 6926, "遭@@": 6927, "美しい": 6928, "論理": 6929, "療法": 6930, "引用": 6931, "ファッション": 6932, "アシ@@": 6933, "構@@": 6934, "ピア": 6935, "ようやく": 6936, "イング": 6937, "欲": 6938, "レンズ": 6939, "ファイナル": 6940, "更@@": 6941, "ワイド": 6942, "CH@@": 6943, "施@@": 6944, "豊か": 6945, "譲": 6946, "ff@@": 6947, "リチャード": 6948, "アント@@": 6949, "資@@": 6950, "菓子": 6951, "写@@": 6952, "触れ": 6953, "使い@@": 6954, "1915": 6955, "編@@": 6956, "書記": 6957, "DNA": 6958, "効": 6959, "創造": 6960, "学位": 6961, "チャイ@@": 6962, "リティ": 6963, "認可": 6964, "グロ@@": 6965, "受験": 6966, "ニッ@@": 6967, "起こり": 6968, "広域": 6969, "含ん": 6970, "労@@": 6971, "方程式": 6972, "騎手": 6973, "ほん": 6974, "予測": 6975, "オフィス": 6976, "荷@@": 6977, "継ぐ": 6978, "述べる": 6979, "業績": 6980, "勧め": 6981, "ベスト@@": 6982, "数値": 6983, "聞@@": 6984, "精": 6985, "正面": 6986, "混合": 6987, "US": 6988, "ME@@": 6989, "酸素": 6990, "露@@": 6991, "プレイ@@": 6992, "マガジン": 6993, "行き@@": 6994, "構内": 6995, "嵐": 6996, "学名": 6997, "スル": 6998, "でん": 6999, "位置づけ": 7000, "総務": 7001, "亡く@@": 7002, "寮": 7003, "登山": 7004, "\"』": 7005, "衛生": 7006, "乾燥": 7007, "SO@@": 7008, "ラテン語": 7009, "国連": 7010, "高松": 7011, "祀@@": 7012, "TE@@": 7013, "ヴ・@@": 7014, "UR@@": 7015, "糖": 7016, "中隊": 7017, "単行本": 7018, "高原": 7019, "賞金": 7020, "朗": 7021, "周波数": 7022, "褐色": 7023, "その間": 7024, "雪@@": 7025, "当地": 7026, "引っ@@": 7027, "芸人": 7028, "紫@@": 7029, "スリー": 7030, "｢": 7031, "説得": 7032, "へ@@": 7033, "干@@": 7034, "決める": 7035, "ツー@@": 7036, "に従って": 7037, "従": 7038, "粘@@": 7039, "態度": 7040, "兼ね": 7041, "決議": 7042, "閥": 7043, "大公": 7044, "タイヤ": 7045, "脱": 7046, "渡る": 7047, "紅": 7048, "中華民国": 7049, "上京": 7050, "量産": 7051, "傾@@": 7052, "\",": 7053, "ローマ帝国": 7054, "ヴェー@@": 7055, "白人": 7056, "消し": 7057, "il": 7058, "征": 7059, "ボート": 7060, "編纂": 7061, "ひとり": 7062, "描き": 7063, "ヒー@@": 7064, "いっ@@": 7065, "モス": 7066, "コス@@": 7067, "インド@@": 7068, "MLB": 7069, "会話": 7070, "風景": 7071, "停留所": 7072, "吾": 7073, "克@@": 7074, "工作": 7075, "甲子園": 7076, "濃度": 7077, "SD": 7078, "宮廷": 7079, "ue": 7080, "競輪": 7081, "Sch@@": 7082, "運賃": 7083, "考案": 7084, "やはり": 7085, "ニャ": 7086, "変動": 7087, "レジ@@": 7088, "絶": 7089, "墓地": 7090, "レンタル": 7091, "キル@@": 7092, "革": 7093, "中断": 7094, "ぞ@@": 7095, "黄色": 7096, "ベリー": 7097, "替@@": 7098, "タス": 7099, "管@@": 7100, "周り": 7101, "ヴィン@@": 7102, "TA": 7103, "DE": 7104, "ミュー@@": 7105, "NP@@": 7106, "移": 7107, "入賞": 7108, "輝": 7109, "斗": 7110, "らす": 7111, "ポリス": 7112, "テナ@@": 7113, "ゆ": 7114, "無人": 7115, "ure": 7116, "快速": 7117, "紫": 7118, "武蔵": 7119, "生存": 7120, "征服": 7121, "フィン": 7122, "廃車": 7123, "トレーニング": 7124, "むしろ": 7125, "直径": 7126, "気象": 7127, "架": 7128, "充": 7129, "バージニア": 7130, "書く": 7131, "ボストン": 7132, "ビール": 7133, "使@@": 7134, "pl@@": 7135, "公国": 7136, "独占": 7137, "らん": 7138, "催@@": 7139, "プロモーション": 7140, "フェリー": 7141, "種目": 7142, "講演": 7143, "啓@@": 7144, "ストライ@@": 7145, "開き": 7146, "庭園": 7147, "おか@@": 7148, "バイエルン": 7149, "五郎": 7150, "ヌー@@": 7151, "容量": 7152, "互いに": 7153, "ネル@@": 7154, "ジョー@@": 7155, "超@@": 7156, "雲@@": 7157, "築い": 7158, "上級": 7159, "物資": 7160, "融@@": 7161, "天保": 7162, "しき": 7163, "配属": 7164, "前田": 7165, "クルー@@": 7166, "菅@@": 7167, "そう@@": 7168, "挿入": 7169, "翌@@": 7170, "赴@@": 7171, "たい@@": 7172, "AS": 7173, "\"|-||": 7174, "ャ@@": 7175, "通貨": 7176, "めて": 7177, "AA": 7178, "併設": 7179, "違っ": 7180, "ヤー": 7181, "メモリ": 7182, "概@@": 7183, "庁舎": 7184, "斬@@": 7185, "900": 7186, "保管": 7187, "輪@@": 7188, "ハード": 7189, "辞": 7190, "才能": 7191, "1908": 7192, "領主": 7193, "逃亡": 7194, "奪わ": 7195, "ヒトラー": 7196, "宏": 7197, "1907": 7198, "搭乗": 7199, "循環": 7200, "縦": 7201, "横須賀": 7202, "士@@": 7203, "針": 7204, "飼@@": 7205, "飛行機": 7206, "オーバー@@": 7207, "cc": 7208, "梅": 7209, "鬼@@": 7210, "他@@": 7211, "下院": 7212, "ライター": 7213, "張り": 7214, "国籍": 7215, "トラブル": 7216, "詰め": 7217, "金メダル": 7218, "コンテンツ": 7219, "皇后": 7220, "大西洋": 7221, "然@@": 7222, "シャン@@": 7223, "対決": 7224, "大人": 7225, "ルイス": 7226, "ボリ@@": 7227, "恒星": 7228, "フィー": 7229, "熱帯": 7230, "ヴェン@@": 7231, "路@@": 7232, "ティン@@": 7233, "達@@": 7234, "向かい": 7235, "コネ@@": 7236, "法案": 7237, "溝": 7238, "東宝": 7239, "リバ@@": 7240, "マラソン": 7241, "運河": 7242, "賛@@": 7243, "類@@": 7244, "サンフランシスコ": 7245, "ノミネート": 7246, "歌う": 7247, "維新": 7248, "在位": 7249, "寛": 7250, "アリ": 7251, "プレーオフ": 7252, "絞@@": 7253, "管弦楽": 7254, "逃れ": 7255, "上杉": 7256, "法学": 7257, "探偵": 7258, "崎@@": 7259, "日曜": 7260, "コンクリート": 7261, "況": 7262, "衰退": 7263, "マネ@@": 7264, "テーション": 7265, "学問": 7266, "偵察": 7267, "フィリ@@": 7268, "おく": 7269, "結ば": 7270, "市街": 7271, "堺": 7272, "ブラ": 7273, "第一@@": 7274, "不安": 7275, "核@@": 7276, "レム": 7277, "桑@@": 7278, "落選": 7279, "ハート": 7280, "1916": 7281, "融合": 7282, "止": 7283, "放射": 7284, "看護": 7285, "死者": 7286, "ゴ・@@": 7287, "大衆": 7288, "タワー": 7289, "フロリダ": 7290, "</": 7291, "比例": 7292, "ug@@": 7293, "クレジット": 7294, "TS": 7295, "努力": 7296, "施さ": 7297, "尽力": 7298, "勧@@": 7299, "哲@@": 7300, "総裁": 7301, "BA": 7302, "創": 7303, "周期": 7304, "せん@@": 7305, "シー・@@": 7306, "論争": 7307, "任期": 7308, "キャンペーン": 7309, "国際@@": 7310, "典型": 7311, "推移": 7312, "ノス": 7313, "飾": 7314, "兼任": 7315, "河内": 7316, "our@@": 7317, "それ@@": 7318, "神宮": 7319, "昌@@": 7320, "エンター@@": 7321, "名乗っ": 7322, "条@@": 7323, "無視": 7324, "レーン": 7325, "気筒": 7326, "とう@@": 7327, "左衛門": 7328, "申": 7329, "必ずしも": 7330, "くり": 7331, "端@@": 7332, "招待": 7333, "ary": 7334, "同意": 7335, "スター・@@": 7336, "しゃ@@": 7337, "拳": 7338, "なくなっ": 7339, "引き継い": 7340, "キュー@@": 7341, "今回": 7342, "クイズ": 7343, "避ける": 7344, "トウ@@": 7345, "番線": 7346, "ゲル@@": 7347, "避け": 7348, "文章": 7349, "黄金": 7350, "仙@@": 7351, "ミッ@@": 7352, "まつ": 7353, "勇": 7354, "寄付": 7355, "エドワード": 7356, "考え方": 7357, "達する": 7358, "楊@@": 7359, "戦術": 7360, "織": 7361, "悪魔": 7362, "レオ": 7363, "開放": 7364, "犯人": 7365, "定数": 7366, "カナ@@": 7367, "おそらく": 7368, "菊@@": 7369, "就職": 7370, "我": 7371, "抑制": 7372, "ファル@@": 7373, "夫妻": 7374, "激しく": 7375, "ers@@": 7376, "ッセル": 7377, "品種": 7378, "置き換え": 7379, "版@@": 7380, "応募": 7381, "容疑": 7382, "限界": 7383, "符": 7384, "厚生": 7385, "リオ@@": 7386, "前回": 7387, "酸@@": 7388, "立地": 7389, "眠@@": 7390, "雑": 7391, "蒲@@": 7392, "武士": 7393, "売り@@": 7394, "負": 7395, "南方": 7396, "修復": 7397, "CS": 7398, "増大": 7399, "認める": 7400, "ワーク": 7401, "ヘン@@": 7402, "レル": 7403, "首位": 7404, "実践": 7405, "定理": 7406, "サイクル": 7407, "係@@": 7408, "NBA": 7409, "町村": 7410, "偽": 7411, "懸念": 7412, "庄@@": 7413, "スン": 7414, "知り": 7415, "コメディ": 7416, "IS": 7417, "ジョー": 7418, "ロット": 7419, "歯@@": 7420, "水域": 7421, "陥@@": 7422, "総会": 7423, "活発": 7424, "総理": 7425, "ゴールド": 7426, "横断": 7427, "曜": 7428, "選考": 7429, "琉球": 7430, "中日": 7431, "ヤー@@": 7432, "スピー@@": 7433, "ラリー": 7434, "刺": 7435, "受": 7436, "両国": 7437, "ティア": 7438, "わし": 7439, "お笑い": 7440, "飛行場": 7441, "スロ@@": 7442, "スキ": 7443, "インターナショナル": 7444, "馬場": 7445, "感覚": 7446, "挟@@": 7447, "バレエ": 7448, "構え": 7449, "ピュ@@": 7450, "ニング@@": 7451, "照": 7452, "公爵": 7453, "着手": 7454, "ょうがっこう": 7455, "同人": 7456, "生放送": 7457, "ヴォー@@": 7458, "ヤング": 7459, "特典": 7460, "縁@@": 7461, "牽引": 7462, "エット": 7463, "長編": 7464, "盗塁": 7465, "訪れる": 7466, "葬@@": 7467, "願@@": 7468, "主宰": 7469, "相次い": 7470, "仙": 7471, "後ろ": 7472, "車線": 7473, "1889": 7474, "レート": 7475, "内戦": 7476, "派@@": 7477, "黒い": 7478, "下流": 7479, "賢@@": 7480, "スワ@@": 7481, "貫@@": 7482, "象@@": 7483, "プレミア": 7484, "落と@@": 7485, "アルコール": 7486, "均@@": 7487, "ウィン": 7488, "半年": 7489, "牧@@": 7490, "トーマス": 7491, "クロス@@": 7492, "ies": 7493, "コンテスト": 7494, "マーケット": 7495, "ウル": 7496, "辛@@": 7497, "汚@@": 7498, "班": 7499, "Ad@@": 7500, "ングル": 7501, "クロ": 7502, "開校": 7503, "衝撃": 7504, "化石": 7505, "視点": 7506, "ir": 7507, "豪": 7508, "ストリ@@": 7509, "八幡": 7510, "豆": 7511, "債": 7512, "敏@@": 7513, "研修": 7514, "期生": 7515, "α": 7516, "フィート": 7517, "継": 7518, "前者": 7519, "180": 7520, "あい@@": 7521, "ホールディングス": 7522, "称する": 7523, "灰@@": 7524, "否": 7525, "学年": 7526, "隠し": 7527, "レビュー": 7528, "SA": 7529, "ングス": 7530, "揚げ": 7531, "見せる": 7532, "コロンビア": 7533, "アマ@@": 7534, "保安": 7535, "配布": 7536, "勝負": 7537, "ウェブサイト": 7538, "Ne@@": 7539, "刺激": 7540, "アーズ": 7541, "終点": 7542, "'@@": 7543, "ブルース": 7544, "軽量": 7545, "面し": 7546, "おか": 7547, "銭": 7548, "Car@@": 7549, "突": 7550, "南アフリカ": 7551, "トゥー@@": 7552, "ヤク@@": 7553, "礁": 7554, "蓋": 7555, "前面": 7556, "ヒロイン": 7557, "仕": 7558, "1905": 7559, "時刻": 7560, "山岳": 7561, "ざ": 7562, "オプション": 7563, "パナ@@": 7564, "弦": 7565, "遊": 7566, "質問": 7567, "＆": 7568, "恋人": 7569, "駒@@": 7570, "授@@": 7571, "魚@@": 7572, "車内": 7573, "延期": 7574, "杉": 7575, "ローン": 7576, "プレート": 7577, "支流": 7578, "尻": 7579, "引": 7580, "変わり": 7581, "慶應義塾": 7582, "顔@@": 7583, "間隔": 7584, "師範": 7585, "数え": 7586, "幻@@": 7587, "優": 7588, "東北@@": 7589, "ce": 7590, "ァ@@": 7591, "阻止": 7592, "前方": 7593, "刑@@": 7594, "前線": 7595, "ティス": 7596, "曽@@": 7597, "ないし": 7598, "法的": 7599, "水戸": 7600, "ペア": 7601, "救助": 7602, "ダービー": 7603, "ビッグ": 7604, "ING": 7605, "ねん": 7606, "おお@@": 7607, "定める": 7608, "十字@@": 7609, "成り@@": 7610, "00@@": 7611, "突入": 7612, "陥っ": 7613, "剥@@": 7614, "AAA": 7615, "菜": 7616, "ドキュメンタリー": 7617, "浪": 7618, "叩@@": 7619, "噂": 7620, "名乗る": 7621, "成人": 7622, "出産": 7623, "従軍": 7624, "ソー": 7625, "調達": 7626, "タクシー": 7627, "ear@@": 7628, "変身": 7629, "DF": 7630, "なみ": 7631, "賢": 7632, "最中": 7633, "大韓民国": 7634, "アタ@@": 7635, "藩@@": 7636, "科@@": 7637, "切る": 7638, "ah@@": 7639, "銘": 7640, "勤@@": 7641, "北海道@@": 7642, "外観": 7643, "宇都宮": 7644, "品質": 7645, "境内": 7646, "ウイ@@": 7647, "之助": 7648, "1909": 7649, "司@@": 7650, "1906": 7651, "祖@@": 7652, "ガリ@@": 7653, "外側": 7654, "バック@@": 7655, "必@@": 7656, "フェスティバル": 7657, "しゃ": 7658, "腹@@": 7659, "拠@@": 7660, "フォーム": 7661, "日々": 7662, "カメ@@": 7663, "アレンジ": 7664, "ational": 7665, "ヒーロー": 7666, "ang@@": 7667, "闘争": 7668, "朱": 7669, "嘉@@": 7670, "薩摩": 7671, "有料": 7672, "晴": 7673, "審判": 7674, "祐": 7675, "寛@@": 7676, "尿": 7677, "残": 7678, "さま": 7679, "ass@@": 7680, "学院大学": 7681, "躍": 7682, "ビュ@@": 7683, "語る": 7684, "途@@": 7685, "ステップ": 7686, "摩": 7687, "岸@@": 7688, "DC": 7689, "最古": 7690, "長距離": 7691, "保証": 7692, "シャン": 7693, "じめ": 7694, "キア": 7695, "腸": 7696, "共和党": 7697, "ジョージア": 7698, "サム": 7699, "液体": 7700, "進める": 7701, "ica": 7702, "排@@": 7703, "後年": 7704, "名詞": 7705, "倒し": 7706, "やり": 7707, "交易": 7708, "コントロール": 7709, "魅力": 7710, "?@@": 7711, "逃げ": 7712, "悟": 7713, "ッシュ@@": 7714, "くらい": 7715, "圧縮": 7716, "にあたって": 7717, "フスキー": 7718, "ヨハ@@": 7719, "声@@": 7720, "知り@@": 7721, "キリスト教": 7722, "笑": 7723, "那": 7724, "漏@@": 7725, "山頂": 7726, "伴": 7727, "偏@@": 7728, "グル": 7729, "みなさ": 7730, "にくい": 7731, "漁業": 7732, "アル・@@": 7733, "紅@@": 7734, "三島": 7735, "広がる": 7736, "スマート": 7737, "水上": 7738, "併せ": 7739, "入場": 7740, "ジョンソン": 7741, "確実": 7742, "コル": 7743, "先生": 7744, "事項": 7745, "ピット": 7746, "あり@@": 7747, "没年": 7748, "人権": 7749, "何らかの": 7750, "か所": 7751, "『\"": 7752, "怒り": 7753, "ライフ": 7754, "丘陵": 7755, "101": 7756, "騒動": 7757, "IN": 7758, "出撃": 7759, "ランド@@": 7760, "欠": 7761, "ミリ@@": 7762, "差@@": 7763, "re": 7764, "ナポレオン": 7765, "プ・@@": 7766, "希": 7767, "乗せ": 7768, "練@@": 7769, "マイクロ@@": 7770, "日曜日": 7771, "ルーマニア": 7772, "慈@@": 7773, "実力": 7774, "ディズニー": 7775, "改装": 7776, "解雇": 7777, "脅@@": 7778, "卓@@": 7779, "ex@@": 7780, "ショッピング": 7781, "AD": 7782, "切ら": 7783, "クル": 7784, "篠@@": 7785, "ヨン": 7786, "財": 7787, "技@@": 7788, "ホイ@@": 7789, "ory": 7790, "絶滅": 7791, "衣装": 7792, "デス@@": 7793, "揚": 7794, "孔": 7795, "電源": 7796, "牡馬": 7797, "部下": 7798, "入門": 7799, "ロール": 7800, "探し": 7801, "弥": 7802, "不正": 7803, "セミ@@": 7804, "はっきり": 7805, "ールド@@": 7806, "毎日@@": 7807, "ro": 7808, "修行": 7809, "逃げ@@": 7810, "叔父": 7811, "不良": 7812, "らか": 7813, "電池": 7814, "交差": 7815, "ェ": 7816, "テス": 7817, "慎@@": 7818, "MF": 7819, "村上": 7820, "codice": 7821, "朝廷": 7822, "スカウト": 7823, "ジャーナリスト": 7824, "敷設": 7825, "遷@@": 7826, "Be@@": 7827, "チベット": 7828, "TKO": 7829, "スポ@@": 7830, "登": 7831, "縦@@": 7832, "ニス": 7833, "みんな": 7834, "師@@": 7835, "冒頭": 7836, "幅広い": 7837, "変わる": 7838, "後部": 7839, "ast@@": 7840, "町内": 7841, "シェル": 7842, "ファミ@@": 7843, "講談社": 7844, "功@@": 7845, "ボーナス": 7846, "括弧": 7847, "ロック@@": 7848, "熊": 7849, "らせ": 7850, "土曜日": 7851, "還": 7852, "高校生": 7853, "建国": 7854, "サム@@": 7855, "誓@@": 7856, "咲@@": 7857, "伊達": 7858, "ップス": 7859, "挟ん": 7860, "ダウンロード": 7861, "甲斐": 7862, "いわ@@": 7863, "CT": 7864, "救援": 7865, "乗降": 7866, "就い": 7867, "DJ": 7868, "iz@@": 7869, "バート": 7870, "属@@": 7871, "サッ@@": 7872, "ぬ@@": 7873, "深刻": 7874, "ジャクソン": 7875, "変わら": 7876, "橋本": 7877, "奇": 7878, "ハウ@@": 7879, "帰": 7880, "フェン@@": 7881, "裁@@": 7882, "福音": 7883, "哨戒": 7884, "hy@@": 7885, "改編": 7886, "No": 7887, "満たす": 7888, "堤": 7889, "輔": 7890, "踏@@": 7891, "GT": 7892, "探検": 7893, "岡崎": 7894, "歌唱": 7895, "通勤": 7896, "ip@@": 7897, "砲撃": 7898, "ブルガリア": 7899, "潮@@": 7900, "隊員": 7901, "境@@": 7902, "外れ": 7903, "ack": 7904, "PO@@": 7905, "キャスター": 7906, "スプリ@@": 7907, "ッケ@@": 7908, "夷": 7909, "旧制": 7910, "アプリ": 7911, "ツール": 7912, "籠": 7913, "ソン@@": 7914, "ウント": 7915, "統制": 7916, "入院": 7917, "エチ@@": 7918, "渡さ": 7919, "ブリッジ": 7920, "かね": 7921, "銅@@": 7922, "講": 7923, "入口": 7924, "西武": 7925, "改めて": 7926, "値@@": 7927, "オオ@@": 7928, "所蔵": 7929, "天文学": 7930, "特集": 7931, "ある程度": 7932, "鷹": 7933, "学長": 7934, "駐屯": 7935, "王立": 7936, "曲線": 7937, "市川": 7938, "ウィル@@": 7939, "ファースト": 7940, "法則": 7941, "最高@@": 7942, "ol": 7943, "車種": 7944, "演説": 7945, "つか": 7946, "掛ける": 7947, "承@@": 7948, "ラテン": 7949, "ヤン": 7950, "圧倒的": 7951, "エスト@@": 7952, "小川": 7953, "ミュンヘン": 7954, "トイレ": 7955, "我々": 7956, "協同": 7957, "ゆく": 7958, "にわたる": 7959, "性的": 7960, "伏@@": 7961, "序@@": 7962, "イヤ@@": 7963, "見つ@@": 7964, "警戒": 7965, "臨床": 7966, "階段": 7967, "たか": 7968, "網@@": 7969, "長らく": 7970, "昆虫": 7971, "都合": 7972, "．": 7973, "眼@@": 7974, "ロイ@@": 7975, "焼": 7976, "℃": 7977, "上田": 7978, "個別": 7979, "コンクール": 7980, "LD": 7981, "蘇": 7982, "オス@@": 7983, "平方@@": 7984, "２": 7985, "ber@@": 7986, "ブン": 7987, "ずる": 7988, "佐々木": 7989, "づい": 7990, "半数": 7991, "つく@@": 7992, "｣": 7993, "なく@@": 7994, "城主": 7995, "効@@": 7996, "配列": 7997, "蓮": 7998, "促@@": 7999, "込": 8000, "算@@": 8001, "カンパニー": 8002, "理想": 8003, "参入": 8004, "しかっ": 8005, "北九州": 8006, "なぜ": 8007, "流し": 8008, "分かっ": 8009, "ダイナ@@": 8010, "ブリュ@@": 8011, "示@@": 8012, "眠": 8013, "皮@@": 8014, "乗り入れ": 8015, "かん@@": 8016, "甥": 8017, "堅": 8018, "削除": 8019, "内側": 8020, "浴@@": 8021, "高山": 8022, "CE@@": 8023, "1890": 8024, "珍しい": 8025, "Ac@@": 8026, "著者": 8027, "浩@@": 8028, "実は": 8029, "冬季": 8030, "伝わる": 8031, "ウー@@": 8032, "型@@": 8033, "稀": 8034, "条例": 8035, "リカ": 8036, "おき": 8037, "単語": 8038, "リントン": 8039, "補佐": 8040, "キャッチ": 8041, "1904": 8042, "130": 8043, "明治@@": 8044, "ダイ": 8045, "空中": 8046, "TC": 8047, "戦場": 8048, "企@@": 8049, "エッ@@": 8050, "秘": 8051, "翔": 8052, "タム": 8053, "VI@@": 8054, "駆け@@": 8055, "ども": 8056, "コマ": 8057, "リング@@": 8058, "諾": 8059, "コロナ": 8060, "らさ": 8061, "不可@@": 8062, "浸@@": 8063, "将校": 8064, "金曜日": 8065, "主任": 8066, "旋": 8067, "ミュージック@@": 8068, "模型": 8069, "ベクトル": 8070, "トリ": 8071, "バランス": 8072, "行方": 8073, "会計": 8074, "ピング": 8075, "ite": 8076, "分散": 8077, "ドラム": 8078, "拝@@": 8079, "クエスト": 8080, "エリザベス": 8081, "須": 8082, "選ぶ": 8083, "パ・@@": 8084, "デジ@@": 8085, "【": 8086, "左翼": 8087, "ial": 8088, "大気": 8089, "メッ@@": 8090, "経済学部": 8091, "伊勢@@": 8092, "ラス@@": 8093, "ッセ@@": 8094, "完": 8095, "配慮": 8096, "民営": 8097, "プロト@@": 8098, "ブン@@": 8099, "ょ": 8100, "イタ@@": 8101, "身分": 8102, "洪水": 8103, "勘@@": 8104, "ell": 8105, "トニー": 8106, "大宮": 8107, "変形": 8108, "宿泊": 8109, "走っ": 8110, "雷@@": 8111, "科大学": 8112, "昭@@": 8113, "路面": 8114, "有機": 8115, "後退": 8116, "ゾン": 8117, "勉強": 8118, "バート・@@": 8119, "バレー": 8120, "介入": 8121, "ess": 8122, "】": 8123, "ジラ": 8124, "創建": 8125, "of@@": 8126, "山崎": 8127, "例@@": 8128, "シュート": 8129, "庵": 8130, "ian": 8131, "劇@@": 8132, "僅か": 8133, "CO": 8134, "高田": 8135, "たび": 8136, "マネージャー": 8137, "細菌": 8138, "Ed@@": 8139, "儀式": 8140, "南海": 8141, "為@@": 8142, "先輩": 8143, "要望": 8144, "モー": 8145, "元禄": 8146, "組む": 8147, "主役": 8148, "寸@@": 8149, "五輪": 8150, "乃@@": 8151, "オレ@@": 8152, "太子": 8153, "短期大学": 8154, "キューバ": 8155, "焼き": 8156, "社会党": 8157, "au@@": 8158, "食料": 8159, "語り": 8160, "中川": 8161, "ゴー": 8162, "総長": 8163, "エンド": 8164, "プラットフォーム": 8165, "ガード": 8166, "降り": 8167, "ピン@@": 8168, "爵位": 8169, "クロアチア": 8170, "あの": 8171, "薬物": 8172, "皆@@": 8173, "うた": 8174, "早い": 8175, "地中海": 8176, "パネル": 8177, "幾@@": 8178, "ユナイテッド": 8179, "中核": 8180, "ペイ@@": 8181, "併合": 8182, "既@@": 8183, "もっと": 8184, "なれ": 8185, "実在": 8186, "雰囲気": 8187, "ヴィル": 8188, "プラス": 8189, "贈ら": 8190, "結晶": 8191, "ジュー@@": 8192, "コフ": 8193, "緩和": 8194, "亡@@": 8195, "並び": 8196, "船体": 8197, "抗争": 8198, "ノフ": 8199, "ヴァイオリン": 8200, "公社": 8201, "ぶん": 8202, "文芸": 8203, "デイヴィ@@": 8204, "初戦": 8205, "ニックス": 8206, "簡易": 8207, "別れ": 8208, "滝@@": 8209, "役者": 8210, "間もなく": 8211, "擁@@": 8212, "包": 8213, "重力": 8214, "全線": 8215, "サス": 8216, "ニョ@@": 8217, "デル・@@": 8218, "サイン": 8219, "テロ@@": 8220, "気圧": 8221, "同国": 8222, "レスリング": 8223, "幕末": 8224, "崇@@": 8225, "ロング": 8226, "ランプ": 8227, "顧客": 8228, "限@@": 8229, "エキ@@": 8230, "いれ": 8231, "鍵": 8232, "心臓": 8233, "チャン@@": 8234, "1903": 8235, "MP": 8236, "大島": 8237, "RPG": 8238, "刑務所": 8239, "チェーン": 8240, "結論": 8241, "リトアニア": 8242, "棋@@": 8243, "控え": 8244, "大使館": 8245, "阿": 8246, "訓": 8247, "入れ@@": 8248, "失い": 8249, "チー@@": 8250, "ゼー@@": 8251, "同等": 8252, "検索": 8253, "辞職": 8254, "水準": 8255, "オーナー": 8256, "ファンタジー": 8257, "技法": 8258, "沖@@": 8259, "ヴィクト@@": 8260, "ガール": 8261, "高架": 8262, "招@@": 8263, "放っ": 8264, "ノン@@": 8265, "在任": 8266, "ドール": 8267, "LIVE": 8268, "調教": 8269, "フライ@@": 8270, "定年": 8271, "俺": 8272, "スコア": 8273, "及ぼ@@": 8274, "陶@@": 8275, "文化@@": 8276, "ヴァー": 8277, "ジョーンズ": 8278, "Col@@": 8279, "疎@@": 8280, "寄": 8281, "コミックス": 8282, "HO@@": 8283, "灰": 8284, "長女": 8285, "口径": 8286, "アベ@@": 8287, "クリスマス": 8288, "振動": 8289, "力学": 8290, "ブリ": 8291, "堂@@": 8292, "NS": 8293, "皮膚": 8294, "リア・@@": 8295, "早": 8296, "蒸@@": 8297, "メル": 8298, "Fl@@": 8299, "写": 8300, "比率": 8301, "港湾": 8302, "巻き@@": 8303, "背番号": 8304, "しかも": 8305, "簿": 8306, "まもなく": 8307, "担う": 8308, "くん": 8309, "並": 8310, "沈没": 8311, "市議会": 8312, "入植": 8313, "同僚": 8314, "てん": 8315, "ガソ@@": 8316, "存": 8317, "敵@@": 8318, "1500": 8319, "パウ@@": 8320, "アナログ": 8321, "退": 8322, "とら": 8323, "進歩": 8324, "太字": 8325, "そのうち": 8326, "脳@@": 8327, "ろし": 8328, "倒れ": 8329, "ュル@@": 8330, "飯": 8331, "州立": 8332, "前日": 8333, "つながっ": 8334, "闇": 8335, "発し": 8336, "権威": 8337, "幼稚園": 8338, "浩": 8339, "藩士": 8340, "解任": 8341, "介し": 8342, "ブラック@@": 8343, "中退": 8344, "マイ": 8345, "ウェル": 8346, "煙@@": 8347, "残留": 8348, "低迷": 8349, "換": 8350, "怒@@": 8351, "命中": 8352, "くれる": 8353, "徹@@": 8354, "ストーン": 8355, "工学部": 8356, "付与": 8357, "石井": 8358, "トロ": 8359, "重複": 8360, "レッド@@": 8361, "戻し": 8362, "ップ・@@": 8363, "筋@@": 8364, "ガム": 8365, "金曜": 8366, "樹立": 8367, "格闘": 8368, "ステー@@": 8369, "リーナ": 8370, "ピーター": 8371, "客車": 8372, "フランク@@": 8373, "沙": 8374, "東海@@": 8375, "運輸": 8376, "会談": 8377, "っと": 8378, "兆": 8379, "償": 8380, "人材": 8381, "三男": 8382, "朝日": 8383, "Web": 8384, "沿線": 8385, "退社": 8386, "珠": 8387, "ならびに": 8388, "熟@@": 8389, "TR": 8390, "滅亡": 8391, "忍@@": 8392, "笠@@": 8393, "留まっ": 8394, "ゴン@@": 8395, "小学": 8396, "スパイ@@": 8397, "踊@@": 8398, "まれ": 8399, "揚@@": 8400, "ティック": 8401, "寛永": 8402, "銘@@": 8403, "百貨店": 8404, "臓": 8405, "夕方": 8406, "CC": 8407, "ヘー@@": 8408, "顕著": 8409, "筆@@": 8410, "揺@@": 8411, "マックス": 8412, "味方": 8413, "ストゥ@@": 8414, "陣@@": 8415, "外野": 8416, "サークル": 8417, "コム": 8418, "見つかっ": 8419, "細川": 8420, "泰@@": 8421, "鮮@@": 8422, "まったく": 8423, "保健": 8424, "髄": 8425, "函館": 8426, "ベッ@@": 8427, "松竹": 8428, "ence": 8429, "環状": 8430, "所長": 8431, "ミズ@@": 8432, "ace": 8433, "sc@@": 8434, "目撃": 8435, "番台": 8436, "携わっ": 8437, "至ら": 8438, "メチ@@": 8439, "くら": 8440, "双": 8441, "島津": 8442, "舟": 8443, "son": 8444, "有利": 8445, "緑色": 8446, "ds": 8447, "原料": 8448, "ide": 8449, "岬": 8450, "識": 8451, "dro@@": 8452, "パール": 8453, "残す": 8454, "erv@@": 8455, "絡@@": 8456, "修道": 8457, "撮@@": 8458, "平面": 8459, "予": 8460, "焼失": 8461, "撃破": 8462, "厳密": 8463, "講座": 8464, "PlayStation": 8465, "気持ち": 8466, "民衆": 8467, "騎乗": 8468, "発覚": 8469, "暗号": 8470, "UFC": 8471, "aw@@": 8472, "手続き": 8473, "ical": 8474, "延伸": 8475, "ジョン@@": 8476, "グレード": 8477, "骨@@": 8478, "1902": 8479, "返還": 8480, "フォン@@": 8481, "借り": 8482, "標本": 8483, "排気": 8484, "従五位": 8485, "湾@@": 8486, "電化": 8487, "航行": 8488, "致@@": 8489, "弓": 8490, "雇@@": 8491, "賠償": 8492, "DA": 8493, "童@@": 8494, "後に": 8495, "モンド": 8496, "希@@": 8497, "期@@": 8498, "対照": 8499, "所持": 8500, "おい": 8501, "ラウ@@": 8502, "ヘリコプター": 8503, "製作所": 8504, "プラン": 8505, "ソニー": 8506, "雅": 8507, "堅@@": 8508, "丈": 8509, "バルセロナ": 8510, "サイ": 8511, "腐@@": 8512, "処": 8513, "パック": 8514, "河口": 8515, "HE@@": 8516, "変える": 8517, "con@@": 8518, "石炭": 8519, "幾つ": 8520, "汽@@": 8521, "匠": 8522, "ミステ@@": 8523, "作画": 8524, "明け": 8525, "ust@@": 8526, "ロックバンド": 8527, "ウェスト@@": 8528, "退役": 8529, "淵": 8530, "捕手": 8531, "エンタテインメント": 8532, "ニ・@@": 8533, "産物": 8534, "枚@@": 8535, "柏@@": 8536, "嶺": 8537, "山下": 8538, "オリコン": 8539, "高め": 8540, "哉": 8541, "ミックス": 8542, "講義": 8543, "ミット": 8544, "騎": 8545, "施工": 8546, "オー": 8547, "ワール": 8548, "対処": 8549, "繊維": 8550, "ドライ@@": 8551, "削": 8552, "対称": 8553, "人事": 8554, "とても": 8555, "肝@@": 8556, "順次": 8557, "適し": 8558, "チェンジ": 8559, "閣": 8560, "イスラーム": 8561, "力士": 8562, "寿@@": 8563, "免": 8564, "準々": 8565, "予約": 8566, "疲@@": 8567, "一時期": 8568, "告げ": 8569, "ループ": 8570, "筆頭": 8571, "全般": 8572, "幼い": 8573, "ポップ": 8574, "、@@": 8575, "神学": 8576, "伏": 8577, "ラグ@@": 8578, "スロバキア": 8579, "断念": 8580, "マンション": 8581, "走り": 8582, "於@@": 8583, "武蔵@@": 8584, "余り": 8585, "冷": 8586, "角形": 8587, "ブライ@@": 8588, "int@@": 8589, "正しい": 8590, "ポン": 8591, "エフ@@": 8592, "ニーズ": 8593, "監査": 8594, "符号": 8595, "ピク@@": 8596, "受容": 8597, "沙@@": 8598, "医薬品": 8599, "塞": 8600, "ジョン・@@": 8601, "大野": 8602, "但し": 8603, "っくり": 8604, "不能": 8605, "売り": 8606, "山城": 8607, "史跡": 8608, "社団": 8609, "キリ@@": 8610, "かみ": 8611, "固め": 8612, "広げ": 8613, "エラ": 8614, "水平": 8615, "紋章": 8616, "集会": 8617, "小屋": 8618, "三浦": 8619, "フレッ@@": 8620, "発注": 8621, "きれ": 8622, "IT": 8623, "ラジ@@": 8624, "スチ@@": 8625, "阪@@": 8626, "芽": 8627, "com": 8628, "鎮": 8629, "出生": 8630, "リンズ": 8631, "ゲイ": 8632, "涙": 8633, "着い": 8634, "チャレンジ": 8635, "省略": 8636, "豊臣": 8637, "傍ら": 8638, "賛成": 8639, "栄養": 8640, "当然": 8641, "斎藤": 8642, "マレーシア": 8643, "ナー・@@": 8644, "上回る": 8645, "160": 8646, "敗@@": 8647, "短く": 8648, "震@@": 8649, "宝塚": 8650, "羊": 8651, "取り組み": 8652, "回る": 8653, "海域": 8654, "海兵": 8655, "支払い": 8656, "de@@": 8657, "互換": 8658, "受章": 8659, "貼@@": 8660, "取り組ん": 8661, "呪@@": 8662, "大変": 8663, "下ろし": 8664, "踊り": 8665, "近衛": 8666, "純粋": 8667, "ツァ": 8668, "國": 8669, "づくり": 8670, "昼": 8671, "ベック": 8672, "浴": 8673, "著@@": 8674, "所領": 8675, "語ら": 8676, "腰": 8677, "CE": 8678, "シアター": 8679, "オールスター": 8680, "Te@@": 8681, "Wil@@": 8682, "そうした": 8683, "戻す": 8684, "鎮圧": 8685, "評判": 8686, "見つけ": 8687, "1898": 8688, "滑走": 8689, "プラン@@": 8690, "招い": 8691, "実況": 8692, "環@@": 8693, "麦": 8694, "株主": 8695, "併用": 8696, "立た": 8697, "ヤン@@": 8698, "首長": 8699, "トロー@@": 8700, "歌劇": 8701, "リーフ": 8702, "ミック": 8703, "ちゃ@@": 8704, "モリ@@": 8705, "EC": 8706, "励@@": 8707, "WBC": 8708, "殆ど": 8709, "早期": 8710, "汚染": 8711, "インフ@@": 8712, "カプ@@": 8713, "唱え": 8714, "メタル": 8715, "亮": 8716, "やめ": 8717, "MI": 8718, "1901": 8719, "掌": 8720, "故": 8721, "覆わ": 8722, "付く": 8723, "医学部": 8724, "Wh@@": 8725, "ハンド@@": 8726, "バンク": 8727, "ダブルス": 8728, "地質": 8729, "アポ@@": 8730, "浜松": 8731, "尼@@": 8732, "表さ": 8733, "変数": 8734, "付け@@": 8735, "ジェ": 8736, "小倉": 8737, "つな@@": 8738, "飲食": 8739, "近江": 8740, "クター@@": 8741, "リエ": 8742, "妨害": 8743, "県知事": 8744, "ヴァン・@@": 8745, "For@@": 8746, "撃墜": 8747, "感謝": 8748, "パーセント": 8749, "零": 8750, "ボーイ": 8751, "景観": 8752, "スイ@@": 8753, "こと@@": 8754, "pp@@": 8755, "招集": 8756, "東海道": 8757, "予防": 8758, "コマンド": 8759, "ric@@": 8760, "Bo@@": 8761, "フェ": 8762, "不振": 8763, "賭@@": 8764, "特異": 8765, "セーブ": 8766, "オニ@@": 8767, "普@@": 8768, "判事": 8769, "老朽": 8770, "天使": 8771, "短期間": 8772, "ビリ@@": 8773, "棄@@": 8774, "専念": 8775, "ばん": 8776, "閉": 8777, "侵略": 8778, "フランシ@@": 8779, "ルネ@@": 8780, "スクリ@@": 8781, "及@@": 8782, "生み@@": 8783, "金額": 8784, "楽章": 8785, "モーター": 8786, "YouTube": 8787, "立体": 8788, "マップ": 8789, "カラ": 8790, "特技": 8791, "ショック": 8792, "デラ@@": 8793, "are": 8794, "Qu@@": 8795, "テリー": 8796, "鈴@@": 8797, "本店": 8798, "降下": 8799, "芸名": 8800, "ウラ@@": 8801, "に従い": 8802, "NA": 8803, "発症": 8804, "ナショ@@": 8805, "移さ": 8806, "木造": 8807, "もたらす": 8808, "ra": 8809, "シュ・@@": 8810, "ゴールデン": 8811, "TO": 8812, "番地": 8813, "通路": 8814, "通学": 8815, "引き継が": 8816, "NTT": 8817, "新作": 8818, "リアス": 8819, "膨@@": 8820, "郵@@": 8821, "復元": 8822, "虚@@": 8823, "脂": 8824, "綴@@": 8825, "忘れ": 8826, "ギア": 8827, "治安": 8828, "易": 8829, "読売": 8830, "多摩": 8831, "テレビ東京": 8832, "チェ": 8833, "椎@@": 8834, "セス": 8835, "au": 8836, "行使": 8837, "ウィー@@": 8838, "ダブル": 8839, "イエス": 8840, "肖像": 8841, "メガ@@": 8842, "ティング@@": 8843, "妊娠": 8844, "コーヒー": 8845, "捜索": 8846, "讃@@": 8847, "艦艇": 8848, "合わせる": 8849, "正義": 8850, "公的": 8851, "偶然": 8852, "没し": 8853, "暖@@": 8854, "ソフト@@": 8855, "実家": 8856, "職人": 8857, "軌@@": 8858, "浄": 8859, "クラウ@@": 8860, "勅": 8861, "孤@@": 8862, "大尉": 8863, "績": 8864, "回答": 8865, "表紙": 8866, "市営": 8867, "チリ": 8868, "電圧": 8869, "無限": 8870, "Hz": 8871, "懸@@": 8872, "テーブル": 8873, "ha": 8874, "遡@@": 8875, "代数": 8876, "町立": 8877, "泣@@": 8878, "yp@@": 8879, "休日": 8880, "Di@@": 8881, "尺": 8882, "鼻": 8883, "ひろ@@": 8884, "der": 8885, "瞬間": 8886, "式@@": 8887, "牧場": 8888, "模": 8889, "蓮@@": 8890, "キッ@@": 8891, "ソロ@@": 8892, "葬": 8893, "統括": 8894, "GM": 8895, "徒歩": 8896, "契機": 8897, "CG": 8898, "調理": 8899, "働@@": 8900, "up": 8901, "たし": 8902, "乗務": 8903, "膝": 8904, "西方": 8905, "上述": 8906, "紙@@": 8907, "生かし": 8908, "壊滅": 8909, "本国": 8910, "敏": 8911, "叙": 8912, "奨励": 8913, "女神": 8914, "女子@@": 8915, "勤め": 8916, "商標": 8917, "広大": 8918, "乗員": 8919, "白色": 8920, "要する": 8921, "割り当て": 8922, "ゆえ": 8923, "尋@@": 8924, "田村": 8925, "同行": 8926, "大いに": 8927, "名人": 8928, "箱@@": 8929, "遮@@": 8930, "個々": 8931, "願い": 8932, "近世": 8933, "ストア": 8934, "1896": 8935, "～@@": 8936, "瑞@@": 8937, "駿@@": 8938, "ディーゼル": 8939, "所得": 8940, "澄": 8941, "ウィリア@@": 8942, "アリーナ": 8943, "被告": 8944, "疑": 8945, "抜擢": 8946, "消え": 8947, "ドラ": 8948, "棄": 8949, "拘束": 8950, "毎回": 8951, "ホン@@": 8952, "とりわけ": 8953, "表彰": 8954, "幹線": 8955, "辰@@": 8956, "図書": 8957, "邪@@": 8958, "GA": 8959, "競合": 8960, "出店": 8961, "ウン": 8962, "室内": 8963, "for@@": 8964, "恐怖": 8965, "抜い": 8966, "不安定": 8967, "三菱": 8968, "彰": 8969, "ros@@": 8970, "貴重": 8971, "抱い": 8972, "he": 8973, "己": 8974, "母音": 8975, "グラフィ@@": 8976, "シャル": 8977, "困@@": 8978, "被災": 8979, "脅威": 8980, "奪取": 8981, "ステン@@": 8982, "ジェネ@@": 8983, "見なさ": 8984, "看板": 8985, "度々": 8986, "江戸@@": 8987, "底@@": 8988, "霧": 8989, "さいたま": 8990, "サブ@@": 8991, "遭遇": 8992, "広報": 8993, "ぜ@@": 8994, "懐@@": 8995, "財務": 8996, "候": 8997, "ラブ": 8998, "記す": 8999, "ムシ": 9000, "アビ@@": 9001, "話す": 9002, "研": 9003, "プレス": 9004, "ess@@": 9005, "水路": 9006, "狭い": 9007, "野生": 9008, "中学生": 9009, "グラウンド": 9010, "ミラー": 9011, "ps": 9012, "施し": 9013, "ストップ": 9014, "下旬": 9015, "釈放": 9016, "島根": 9017, "our": 9018, "ame": 9019, "だし": 9020, "マ・@@": 9021, "パーツ": 9022, "決して": 9023, "FO@@": 9024, "オレンジ": 9025, "サ・@@": 9026, "Br@@": 9027, "守り": 9028, "ハーン": 9029, "com@@": 9030, "ens@@": 9031, "んな": 9032, "殿堂": 9033, "1897": 9034, "エール": 9035, "答@@": 9036, "野田": 9037, "1899": 9038, "藤田": 9039, "ュ": 9040, "耕@@": 9041, "VE": 9042, "まえ": 9043, "検証": 9044, "高等学校": 9045, "生態": 9046, "鋳@@": 9047, "ブール": 9048, "+@@": 9049, "スカロライナ": 9050, "鋼@@": 9051, "枢@@": 9052, "果実": 9053, "徹": 9054, "大都市": 9055, "専属": 9056, "空手": 9057, "反射": 9058, "シオン": 9059, "集める": 9060, "法令": 9061, "インター": 9062, "nd": 9063, "転用": 9064, "充実": 9065, "加わり": 9066, "マドリード": 9067, "響@@": 9068, "悪く": 9069, "喪失": 9070, "出会っ": 9071, "メソ@@": 9072, "投与": 9073, "教養": 9074, "満足": 9075, "牧師": 9076, "回し": 9077, "礼拝": 9078, "スタンド": 9079, "とく": 9080, "産地": 9081, "アンド": 9082, "閲覧": 9083, "覧": 9084, "鍛@@": 9085, "正教会": 9086, "歩行": 9087, "四郎": 9088, "テ・@@": 9089, "スコー@@": 9090, "ロウ": 9091, "ギタリスト": 9092, "増し": 9093, "ach@@": 9094, "pro@@": 9095, "跳@@": 9096, "各社": 9097, "海賊": 9098, "つもり": 9099, "ピ": 9100, "顎": 9101, "諏訪": 9102, "リベ@@": 9103, "遊び": 9104, "帰り": 9105, "捕らえ": 9106, "土木": 9107, "庶民": 9108, "ギー@@": 9109, "証@@": 9110, "南米": 9111, "ジャイアンツ": 9112, "征@@": 9113, "ann@@": 9114, "磁気": 9115, "瀬戸@@": 9116, "概ね": 9117, "合衆国": 9118, "警": 9119, "夢@@": 9120, "コミュニケーション": 9121, "季節": 9122, "RC": 9123, "琴": 9124, "獲": 9125, "微分": 9126, "ギル@@": 9127, "コンサル@@": 9128, "AP": 9129, "セックス": 9130, "シェア": 9131, "水系": 9132, "京都大": 9133, "オン・@@": 9134, "貢": 9135, "仕組み": 9136, "現状": 9137, "損失": 9138, "文部": 9139, "きん": 9140, "コンビ@@": 9141, "インタ@@": 9142, "AI": 9143, "ゴム": 9144, "伸ばし": 9145, "動機": 9146, "内陸": 9147, "神聖": 9148, "フィア": 9149, "さん@@": 9150, "ザクセン": 9151, "ほしい": 9152, "野村": 9153, "強度": 9154, "理学": 9155, "JAPAN": 9156, "逃し": 9157, "クリエイ@@": 9158, "トヨタ": 9159, "秘書": 9160, "ES": 9161, "スポット": 9162, "伝達": 9163, "ii": 9164, "ライト@@": 9165, "造ら": 9166, "訴@@": 9167, "カリ": 9168, "トップ@@": 9169, "統@@": 9170, "磨": 9171, "港@@": 9172, "官位": 9173, "ウェイ@@": 9174, "策定": 9175, "祀": 9176, "阻害": 9177, "楼": 9178, "ピーク": 9179, "透明": 9180, "稼働": 9181, "沿@@": 9182, "燕": 9183, "マーシャル": 9184, "タイガース": 9185, "違法": 9186, "流用": 9187, "染": 9188, "β": 9189, "シドニー": 9190, "彼@@": 9191, "齢": 9192, "イツ": 9193, "じゅ@@": 9194, "△": 9195, "起訴": 9196, "技師": 9197, "体育館": 9198, "いか": 9199, "マスク": 9200, "キック": 9201, "インテ@@": 9202, "就役": 9203, "ゼン": 9204, "もらう": 9205, "そば": 9206, "拘@@": 9207, "ハリウッド": 9208, "GO": 9209, "因ん": 9210, "開け": 9211, "af@@": 9212, "はるか": 9213, "開く": 9214, "ノート": 9215, "ment": 9216, "要件": 9217, "釜@@": 9218, "踏み@@": 9219, "▲": 9220, "垂直": 9221, "評さ": 9222, "シングルス": 9223, "育っ": 9224, "小学生": 9225, "シング@@": 9226, "カ国": 9227, "虐殺": 9228, "開局": 9229, "貨幣": 9230, "死ぬ": 9231, "加える": 9232, "GI": 9233, "郷@@": 9234, "砂漠": 9235, "たど@@": 9236, "ly": 9237, "損@@": 9238, "art@@": 9239, "全部": 9240, "灯@@": 9241, "鳳": 9242, "コンテナ": 9243, "冷却": 9244, "債務": 9245, "抑@@": 9246, "気に@@": 9247, "呼吸": 9248, "ペンシルベニア": 9249, "土壌": 9250, "制約": 9251, "ラト@@": 9252, "がら": 9253, "350": 9254, "スロー@@": 9255, "付加": 9256, "マルチ@@": 9257, "さくら": 9258, "アイランド": 9259, "すぎる": 9260, "NO@@": 9261, "野菜": 9262, "匹": 9263, "マスコミ": 9264, "わかる": 9265, "仕掛け": 9266, "たく@@": 9267, "才": 9268, "凍@@": 9269, "らく": 9270, "鐘": 9271, "北陸": 9272, "疑い": 9273, "后": 9274, "覚え": 9275, "リゾート": 9276, "盆地": 9277, "墳": 9278, "ワークス": 9279, "輩出": 9280, "小・中学校": 9281, "猛": 9282, "求": 9283, "マリ": 9284, "ain@@": 9285, "怪獣": 9286, "標@@": 9287, "ウェールズ": 9288, "閣@@": 9289, "恵まれ": 9290, "崇": 9291, "ビーチ": 9292, "ドー": 9293, "Se@@": 9294, "wor@@": 9295, "弱い": 9296, "顕": 9297, "常務": 9298, "ED": 9299, "ロング@@": 9300, "水中": 9301, "声明": 9302, "廠": 9303, "合理": 9304, "個@@": 9305, "検定": 9306, "シェ": 9307, "アキ@@": 9308, "国民党": 9309, "誠@@": 9310, "吐@@": 9311, "伴@@": 9312, "ゅうがっこう": 9313, "カム@@": 9314, "坂本": 9315, "メロ@@": 9316, "スティック": 9317, "青春": 9318, "パーティー": 9319, "蒙": 9320, "務省": 9321, "代行": 9322, "ミー・@@": 9323, "青山": 9324, "土佐": 9325, "フラン": 9326, "oci@@": 9327, "燃焼": 9328, "住所": 9329, "がく": 9330, "ath@@": 9331, "IBM": 9332, "cl@@": 9333, "熱心": 9334, "リーン": 9335, "熊@@": 9336, "放": 9337, "阪急": 9338, "得票": 9339, "125": 9340, "除去": 9341, "厳": 9342, "うまく": 9343, "MP@@": 9344, "AB@@": 9345, "農村": 9346, "わかっ": 9347, "トランス": 9348, "酷@@": 9349, "妥@@": 9350, "切り替え": 9351, "ション・@@": 9352, "追": 9353, "チャンピオンズ": 9354, "クソン": 9355, "診": 9356, "鞭": 9357, "もん": 9358, "貝": 9359, "兵力": 9360, "朴": 9361, "墜落": 9362, "いつも": 9363, "貧困": 9364, "げん": 9365, "なわ": 9366, "El@@": 9367, "定員": 9368, "夕": 9369, "胤": 9370, "桐@@": 9371, "教区": 9372, "隊長": 9373, "づく": 9374, "照明": 9375, "排出": 9376, "歩道": 9377, "キロ@@": 9378, "捉え": 9379, "遺伝": 9380, "今度": 9381, "man": 9382, "新しく": 9383, "GO@@": 9384, "ペース": 9385, "スカイ": 9386, "同型": 9387, "シュタ@@": 9388, "巻き込ま": 9389, "ションズ": 9390, "1871": 9391, "格闘技": 9392, "きり": 9393, "打っ": 9394, "ゼル": 9395, "神殿": 9396, "牝馬": 9397, "見方": 9398, "テレ": 9399, "奴": 9400, "貝@@": 9401, "新聞社": 9402, "冬@@": 9403, "滑": 9404, "読む": 9405, "鉛": 9406, "Pl@@": 9407, "ABC": 9408, "AFC": 9409, "伯@@": 9410, "\"」": 9411, "擬@@": 9412, "BGM": 9413, "プロテスタント": 9414, "埋め@@": 9415, "呼@@": 9416, "ぴ@@": 9417, "謝罪": 9418, "他社": 9419, "プレ": 9420, "東芝": 9421, "搬@@": 9422, "鳴": 9423, "磐@@": 9424, "立大学": 9425, "ium": 9426, "詳@@": 9427, "ワーズ": 9428, "1880": 9429, "国軍": 9430, "民俗": 9431, "衛@@": 9432, "浮上": 9433, "歌謡": 9434, "ファン・@@": 9435, "操": 9436, "冠@@": 9437, "マサチューセッツ": 9438, "使者": 9439, "ニア・@@": 9440, "とどまっ": 9441, "元素": 9442, "拍@@": 9443, "グレイ@@": 9444, "主として": 9445, "スズ@@": 9446, "ミドル": 9447, "規": 9448, "近畿": 9449, "弾薬": 9450, "継が": 9451, "救出": 9452, "治世": 9453, "頂点": 9454, "糸@@": 9455, "勝っ": 9456, "領地": 9457, "精度": 9458, "豆@@": 9459, "1870": 9460, "律@@": 9461, "しめ": 9462, "隅": 9463, "サーバ": 9464, "安政": 9465, "済み": 9466, "モーター@@": 9467, "シウム": 9468, "完結": 9469, "読ん": 9470, "尾張": 9471, "重大": 9472, "繰り広げ": 9473, "募@@": 9474, "並み": 9475, "信濃": 9476, "やる": 9477, "職務": 9478, "加速": 9479, "少佐": 9480, "近藤": 9481, "ヨ": 9482, "フュー@@": 9483, "運命": 9484, "著し": 9485, "デュー@@": 9486, "バース": 9487, "オハイオ": 9488, "ピア@@": 9489, "マイク": 9490, "妙@@": 9491, "努め": 9492, "積み@@": 9493, "ラッシュ": 9494, "ネン@@": 9495, "HD": 9496, "仮説": 9497, "広がり": 9498, "分間": 9499, "降板": 9500, "炎@@": 9501, "拓": 9502, "正当": 9503, "介@@": 9504, "日本海": 9505, "電機": 9506, "ライン@@": 9507, "最適": 9508, "関節": 9509, "消": 9510, "リラ": 9511, "フィール@@": 9512, "1895": 9513, "カーブ": 9514, "フロン@@": 9515, "act@@": 9516, "下位": 9517, "リース": 9518, "起こさ": 9519, "たけ": 9520, "アウグ@@": 9521, "倉庫": 9522, "ロケ": 9523, "倶楽部": 9524, "福田": 9525, "流出": 9526, "どれ": 9527, "知的": 9528, "無効": 9529, "ty": 9530, "銅メダル": 9531, "安倍": 9532, "パッ@@": 9533, "研@@": 9534, "天文台": 9535, "LU@@": 9536, "還元": 9537, "習慣": 9538, "貌": 9539, "中盤": 9540, "アシスト": 9541, "バス@@": 9542, "酷": 9543, "凝@@": 9544, "誇る": 9545, "『@@": 9546, "140": 9547, "陣営": 9548, "笠": 9549, "芝居": 9550, "野党": 9551, "大坂": 9552, "許": 9553, "幹事": 9554, "クーデター": 9555, "チェル@@": 9556, "たっ": 9557, "東洋@@": 9558, "メモ@@": 9559, "チャンピオンシップ": 9560, "カム": 9561, "函数": 9562, "騎@@": 9563, "退官": 9564, "たびたび": 9565, "原型": 9566, "ジェリア": 9567, "アサ@@": 9568, "あくまで": 9569, "ect": 9570, "スウェ@@": 9571, "美濃": 9572, "インズ": 9573, "尉": 9574, "USS": 9575, "高まっ": 9576, "徐": 9577, "家老": 9578, "アトラ@@": 9579, "DP": 9580, "セラ@@": 9581, "甲府": 9582, "号車": 9583, "題し": 9584, "ivers@@": 9585, "登記": 9586, "ドナルド": 9587, "キャプテン": 9588, "測@@": 9589, "me": 9590, "つながる": 9591, "培@@": 9592, "話し@@": 9593, "後藤": 9594, "最小": 9595, "演算": 9596, "小田原": 9597, "メタ@@": 9598, "ボーン": 9599, "皇太子": 9600, "させる": 9601, "州都": 9602, "Comp@@": 9603, "豊田": 9604, "成田": 9605, "ヴァン": 9606, "払い": 9607, "倫理": 9608, "辻": 9609, "アーケード": 9610, "単一": 9611, "客員": 9612, "分ける": 9613, "ウィリアムズ": 9614, "日本国": 9615, "警告": 9616, "狙っ": 9617, "寄与": 9618, "内蔵": 9619, "玄@@": 9620, "右翼": 9621, "信者": 9622, "炭": 9623, "グラフィック": 9624, "不要": 9625, "CPU": 9626, "流入": 9627, "SL": 9628, "ビー・@@": 9629, "かか@@": 9630, "括": 9631, "カレ@@": 9632, "備える": 9633, "推理": 9634, "適応": 9635, "狭": 9636, "先住民": 9637, "オフ@@": 9638, "番手": 9639, "チップ": 9640, "遂@@": 9641, "米ドル": 9642, "モハ": 9643, "討伐": 9644, "技能": 9645, "水雷": 9646, "発信": 9647, "割り@@": 9648, "駆@@": 9649, "敵対": 9650, "遣@@": 9651, "YO@@": 9652, "エフ": 9653, "過剰": 9654, "Co@@": 9655, "反撃": 9656, "セラー": 9657, "立てる": 9658, "山中": 9659, "葬儀": 9660, "田川": 9661, "市役所": 9662, "因子": 9663, "求@@": 9664, "オーディ@@": 9665, "次官": 9666, "導体": 9667, "銀メダル": 9668, "倍@@": 9669, "がし": 9670, "アシスタント": 9671, "執政": 9672, "収益": 9673, "博多": 9674, "会合": 9675, "巻き": 9676, "佳@@": 9677, "メカ@@": 9678, "改訂": 9679, "ツェ": 9680, "楕円": 9681, "摂取": 9682, "付き@@": 9683, "シード": 9684, "あたっ": 9685, "デッ@@": 9686, "ü@@": 9687, "つとめ": 9688, "Twitter": 9689, "聞き@@": 9690, "天井": 9691, "体操": 9692, "地獄": 9693, "アント": 9694, "勅@@": 9695, "オフィ@@": 9696, "衰@@": 9697, "Op@@": 9698, "te": 9699, "飾り": 9700, "再会": 9701, "無し": 9702, "都心": 9703, "多用": 9704, "九州@@": 9705, "組み込ま": 9706, "同地": 9707, "シェイ@@": 9708, "和解": 9709, "三木": 9710, "老人": 9711, "親交": 9712, "従って": 9713, "デイ": 9714, "スイッチ": 9715, "シリ@@": 9716, "観音": 9717, "停": 9718, "1868": 9719, "遠く": 9720, "羅@@": 9721, "ance": 9722, "正月": 9723, "日光": 9724, "ショート": 9725, "後世": 9726, "平行": 9727, "ランド・@@": 9728, "オロ@@": 9729, "診療": 9730, "PA": 9731, "コミューン": 9732, "卓": 9733, "革新": 9734, "ほう@@": 9735, "He@@": 9736, "\"）@@": 9737, "映": 9738, "RA": 9739, "もちろん": 9740, "吊@@": 9741, "ヒ・@@": 9742, "旋@@": 9743, "斜@@": 9744, "打席": 9745, "会津": 9746, "推奨": 9747, "ぽ": 9748, "ニオン": 9749, "阿部": 9750, "ポート@@": 9751, "基金": 9752, "おも@@": 9753, "ナム": 9754, "犬@@": 9755, "ドメイン": 9756, "ゲージ": 9757, "トランス@@": 9758, "蘇@@": 9759, "エム@@": 9760, "法廷": 9761, "ストリー@@": 9762, "礼@@": 9763, "加賀": 9764, "World": 9765, "就航": 9766, "呈@@": 9767, "スブルク": 9768, "ラム@@": 9769, "窓口": 9770, "ビス": 9771, "逸@@": 9772, "なら@@": 9773, "演習": 9774, "360": 9775, "ブラウ@@": 9776, "拓@@": 9777, "Mon@@": 9778, "フット@@": 9779, "極端": 9780, "ダー・@@": 9781, "叫@@": 9782, "カフェ": 9783, "もらっ": 9784, "由": 9785, "やってき": 9786, "ack@@": 9787, "隣@@": 9788, "肉体": 9789, "ジー・@@": 9790, "コー": 9791, "コウ@@": 9792, "道場": 9793, "MO": 9794, "タバ@@": 9795, "罰@@": 9796, "角度": 9797, "列島": 9798, "集まり": 9799, "珠@@": 9800, "フィン@@": 9801, "欄": 9802, "キャップ": 9803, "浴び": 9804, "側@@": 9805, "月曜": 9806, "ガ・@@": 9807, "＋": 9808, "正体": 9809, "謡": 9810, "繁@@": 9811, "クリスト@@": 9812, "撃沈": 9813, "宜": 9814, "潰@@": 9815, "PV": 9816, "益@@": 9817, "まん@@": 9818, "バス停": 9819, "っぽ@@": 9820, "謙@@": 9821, "西ドイツ": 9822, "表題": 9823, "斉@@": 9824, "HP": 9825, "靴": 9826, "アドレス": 9827, "東南アジア": 9828, "フィリップ": 9829, "we@@": 9830, "ギュ@@": 9831, "海底": 9832, "市域": 9833, "ログ": 9834, "ハラ": 9835, "外見": 9836, "電流": 9837, "量@@": 9838, "日野": 9839, "チョウ": 9840, "センチメートル": 9841, "舷": 9842, "ong": 9843, "出品": 9844, "データベース": 9845, "バイク": 9846, "忍": 9847, "公務員": 9848, "繁栄": 9849, "マス@@": 9850, "市販": 9851, "ニッポン": 9852, "支払@@": 9853, "経歴": 9854, "ナイ": 9855, "ray": 9856, "ラン・@@": 9857, "ソル": 9858, "igh@@": 9859, "マツ@@": 9860, "呼びかけ": 9861, "鳥類": 9862, "及ん": 9863, "涼": 9864, "ラップ": 9865, "認証": 9866, "椅子": 9867, "視覚": 9868, "汁": 9869, "SE": 9870, "家系": 9871, "餌": 9872, "クリス@@": 9873, "ドクター": 9874, "配下": 9875, "望遠鏡": 9876, "もうけ": 9877, "テキスト": 9878, "開戦": 9879, "瓦": 9880, "幽@@": 9881, "胡": 9882, "死体": 9883, "当たっ": 9884, "サウンドトラック": 9885, "脊@@": 9886, "神田": 9887, "物体": 9888, "WE@@": 9889, "投げ@@": 9890, "奉": 9891, "クリス": 9892, "フレーズ": 9893, "ールス": 9894, "関わり": 9895, "カントリー": 9896, "ケイ": 9897, "を@@": 9898, "NN": 9899, "増強": 9900, "染色": 9901, "長岡": 9902, "ボルト": 9903, "ーリ": 9904, "Or@@": 9905, "大津": 9906, "amp@@": 9907, "外務省": 9908, "マッカー@@": 9909, "福山": 9910, "栄え": 9911, "毎@@": 9912, "填": 9913, "ふる@@": 9914, "あまりに": 9915, "錦": 9916, "採択": 9917, "EU": 9918, "年金": 9919, "ile": 9920, "扇@@": 9921, "すけ": 9922, "セッション": 9923, "学士": 9924, "ユーゴスラビア": 9925, "関東@@": 9926, "綱@@": 9927, "出荷": 9928, "ビス@@": 9929, "コミュニ@@": 9930, "優位": 9931, "プログラミング": 9932, "グロ": 9933, "総額": 9934, "蛇": 9935, "ヵ@@": 9936, "いく@@": 9937, "果た@@": 9938, "東急": 9939, "シュタット": 9940, "信用": 9941, "ルーム": 9942, "れん": 9943, "交戦": 9944, "ふく": 9945, "場@@": 9946, "やって@@": 9947, "排水": 9948, "ッジ@@": 9949, "なき": 9950, "満了": 9951, "出港": 9952, "中東": 9953, "八幡@@": 9954, "ern@@": 9955, "切断": 9956, "IP": 9957, "壊": 9958, "たま": 9959, "熊野": 9960, "チャンス": 9961, "軍勢": 9962, "中立": 9963, "ガラ@@": 9964, "作風": 9965, "良好": 9966, "潜": 9967, "返さ": 9968, "自由民主党": 9969, "しゅう": 9970, "情勢": 9971, "官房": 9972, "エウ@@": 9973, "全身": 9974, "党@@": 9975, "ルズ": 9976, "寒": 9977, "先進": 9978, "..@@": 9979, "ウェブ@@": 9980, "単なる": 9981, "「@@": 9982, "高層": 9983, "無事": 9984, "デリ@@": 9985, "慶応": 9986, "不思議": 9987, "戻さ": 9988, "厳しく": 9989, "避": 9990, "把握": 9991, "児@@": 9992, "ズル": 9993, "朝日放送": 9994, "中等": 9995, "上場": 9996, "Intern@@": 9997, "1873": 9998, "リレー": 9999, "壁@@": 10000, "部位": 10001, "ッグ@@": 10002, "なう": 10003, "安価": 10004, "位相": 10005, "骨折": 10006, "木材": 10007, "なお@@": 10008, "ime": 10009, "まつり": 10010, "日市": 10011, "カップ@@": 10012, "んじ": 10013, "鄭": 10014, "旭@@": 10015, "得@@": 10016, "返す": 10017, "芦@@": 10018, "ダメージ": 10019, "週末": 10020, "貫通": 10021, "スクリーン": 10022, "皇子": 10023, "序": 10024, "望ん": 10025, "ランス": 10026, "隠居": 10027, "党首": 10028, "ジャーズ": 10029, "ヒドロ@@": 10030, "漂@@": 10031, "比べる": 10032, "報酬": 10033, "守っ": 10034, "1872": 10035, "りゅう": 10036, "外科": 10037, "幾何": 10038, "盛岡": 10039, "親友": 10040, "ハウゼン": 10041, "IB@@": 10042, "著しく": 10043, "アウト@@": 10044, "党員": 10045, "スライ@@": 10046, "販": 10047, "シグ@@": 10048, "ook": 10049, "震": 10050, "荘@@": 10051, "TOKYO": 10052, "標的": 10053, "警察官": 10054, "IR@@": 10055, "誤っ": 10056, "廃棄": 10057, "刻@@": 10058, "rec@@": 10059, "ノース": 10060, "TE": 10061, "発動": 10062, "せい@@": 10063, "硫@@": 10064, "響": 10065, "銀座": 10066, "伐": 10067, "イベ@@": 10068, "1894": 10069, "胸@@": 10070, "至": 10071, "妖怪": 10072, "シスト": 10073, "知名度": 10074, "夏季": 10075, "アグ@@": 10076, "妖@@": 10077, "ミラノ": 10078, "考@@": 10079, "科目": 10080, "踏襲": 10081, "olog@@": 10082, "君@@": 10083, "ちゃ": 10084, "肺@@": 10085, "禁じ": 10086, "ウェー@@": 10087, "フィクション": 10088, "猛@@": 10089, "引く": 10090, "シンボル": 10091, "垂@@": 10092, "ユニバーサル": 10093, "テッ@@": 10094, "EN": 10095, "TH@@": 10096, "対空": 10097, "マニュ@@": 10098, "暇": 10099, "フェンス": 10100, "最強": 10101, "高める": 10102, "台北": 10103, "Ge@@": 10104, "マウス": 10105, "焦点": 10106, "動詞": 10107, "小田@@": 10108, "ヴェネツィア": 10109, "em": 10110, "とくに": 10111, "査@@": 10112, "千代田": 10113, "ステル": 10114, "がち": 10115, "談@@": 10116, "ポケット": 10117, "アセ@@": 10118, "径": 10119, "急激": 10120, "WS": 10121, "メダ@@": 10122, "コラボレーション": 10123, "樽": 10124, "バナ@@": 10125, "リーガ": 10126, "ブライアン": 10127, "by": 10128, "薄": 10129, "支給": 10130, "蜂起": 10131, "広島@@": 10132, "再婚": 10133, "中旬": 10134, "コラ@@": 10135, "めぐ@@": 10136, "ool": 10137, "EP": 10138, "出雲": 10139, "レーザー": 10140, "淳": 10141, "公募": 10142, "特撮": 10143, "EX@@": 10144, "申@@": 10145, "宰@@": 10146, "っかり": 10147, "繋がっ": 10148, "序盤": 10149, "種子": 10150, "モバイル": 10151, "三角": 10152, "システ@@": 10153, "誤り": 10154, "彫@@": 10155, "RNA": 10156, "用地": 10157, "似@@": 10158, "赤色": 10159, "謀@@": 10160, "ロフ": 10161, "水力": 10162, "穏@@": 10163, "品川": 10164, "仰@@": 10165, "ゲイ@@": 10166, "マルク": 10167, "プトン": 10168, "ind@@": 10169, "トロン": 10170, "リス@@": 10171, "最下位": 10172, "損": 10173, "頑@@": 10174, "キー・@@": 10175, "りん": 10176, "骸": 10177, "陸地": 10178, "止める": 10179, "槻": 10180, "覇": 10181, "置き@@": 10182, "発祥": 10183, "ペルー": 10184, "ゾン@@": 10185, "蹴@@": 10186, "腺": 10187, "スポーツ@@": 10188, "Japan": 10189, "毎月": 10190, "南極": 10191, "宅@@": 10192, "同校": 10193, "ドミニ@@": 10194, "砲兵": 10195, "アトランタ": 10196, "カスタ@@": 10197, "CP": 10198, "uk@@": 10199, "ョー@@": 10200, "ムスリム": 10201, "梨": 10202, "乾@@": 10203, "免疫": 10204, "アンス": 10205, "胴体": 10206, "懲役": 10207, "鑑賞": 10208, "秩序": 10209, "出口": 10210, "OF": 10211, "滅ぼ@@": 10212, "農家": 10213, "ボウル": 10214, "ましい": 10215, "op": 10216, "休み": 10217, "曳@@": 10218, "アイヌ": 10219, "粉@@": 10220, "アンダー@@": 10221, "uct@@": 10222, "広まっ": 10223, "ML": 10224, "赴任": 10225, "戚": 10226, "矛盾": 10227, "リーグ@@": 10228, "バレン@@": 10229, "アーサー": 10230, "Dis@@": 10231, "猪@@": 10232, "\\": 10233, "内野": 10234, "だい@@": 10235, "跨@@": 10236, "巡っ": 10237, "小野": 10238, "捕獲": 10239, "ne@@": 10240, "成る": 10241, "川口": 10242, "又": 10243, "振": 10244, "及": 10245, "ずみ": 10246, "崖": 10247, "造り": 10248, "チームメイト": 10249, "しも": 10250, "anc@@": 10251, "農場": 10252, "アジ@@": 10253, "討": 10254, "1893": 10255, "親子": 10256, "ソニー・@@": 10257, "郡@@": 10258, "干渉": 10259, "グラス": 10260, "暮@@": 10261, "IV": 10262, "1600": 10263, "キハ": 10264, "オート": 10265, "入居": 10266, "ダンサー": 10267, "フェルト": 10268, "もち": 10269, "背後": 10270, "擁立": 10271, "偏": 10272, "アイデア": 10273, "ストン・@@": 10274, "詳しく": 10275, "南端": 10276, "UR": 10277, "1884": 10278, "キーボード": 10279, "瓶": 10280, "浦和": 10281, "コナ@@": 10282, "探査": 10283, "Cor@@": 10284, "エーション": 10285, "役職": 10286, "バマ": 10287, "ダイヤモンド": 10288, "替わり": 10289, "個性": 10290, "楽天": 10291, "鋭": 10292, "博し": 10293, "支線": 10294, "乗組": 10295, "ケル": 10296, "王妃": 10297, "小山": 10298, "ビデ@@": 10299, "指令": 10300, "保全": 10301, "ジョル@@": 10302, "りょう": 10303, "独裁": 10304, "真実": 10305, "閉店": 10306, "支社": 10307, "青木": 10308, "買っ": 10309, "クイー@@": 10310, "ina": 10311, "最年@@": 10312, "変異": 10313, "ハム@@": 10314, "スパイ": 10315, "同級生": 10316, "名づけ": 10317, "モノ": 10318, "セリ@@": 10319, "府立": 10320, "展望": 10321, "文政": 10322, "サーキット": 10323, "賃金": 10324, "ベール": 10325, "住み": 10326, "ゲオル@@": 10327, "なん": 10328, "決戦": 10329, "カーズ": 10330, "失う": 10331, "教科書": 10332, "廊": 10333, "荷物": 10334, "触媒": 10335, "ずっと": 10336, "根本": 10337, "鯨": 10338, "レコー@@": 10339, "どん": 10340, "着工": 10341, "彗星": 10342, "回想": 10343, "ヶ所": 10344, "盾": 10345, "本質": 10346, "慕容@@": 10347, "ラーメン": 10348, "Tr@@": 10349, "三河": 10350, "DA@@": 10351, "アラン": 10352, "救済": 10353, "ディナ@@": 10354, "ひと@@": 10355, "ばし": 10356, "刃": 10357, "ショット": 10358, "ニズム": 10359, "みな": 10360, "BO": 10361, "ish": 10362, "アルメニア": 10363, "郷土": 10364, "二郎": 10365, "機材": 10366, "マリア・@@": 10367, "歌舞伎": 10368, "晩": 10369, "長谷川": 10370, "央": 10371, "氏族": 10372, "なか@@": 10373, "寛政": 10374, "ドラえもん": 10375, "荒川": 10376, "活": 10377, "刀@@": 10378, "ID": 10379, "街@@": 10380, "儒@@": 10381, "ハル": 10382, "勾配": 10383, "サラ": 10384, "光学": 10385, "不定期": 10386, "MT": 10387, "Google": 10388, "1888": 10389, "越える": 10390, "1891": 10391, "突撃": 10392, "ウエ@@": 10393, "1885": 10394, "釣り": 10395, "コロン@@": 10396, "佐野": 10397, "房@@": 10398, "音響": 10399, "他人": 10400, "鰭": 10401, "人組": 10402, "乏@@": 10403, "ルーツ": 10404, "メトロ": 10405, "フェリ@@": 10406, "しょう@@": 10407, "錯@@": 10408, "ホームページ": 10409, "外線": 10410, "前進": 10411, "ラスト": 10412, "クラー@@": 10413, "抹@@": 10414, "嫡@@": 10415, "傾斜": 10416, "車庫": 10417, "貨車": 10418, "Man@@": 10419, "ポリ": 10420, "ピアニスト": 10421, "母体": 10422, "識別": 10423, "洞@@": 10424, "刈@@": 10425, "潤": 10426, "裂@@": 10427, "ダニエル": 10428, "頻度": 10429, "交通省": 10430, "威": 10431, "SM": 10432, "志願": 10433, "普段": 10434, "ガーデン": 10435, "軽減": 10436, "禅@@": 10437, "引い": 10438, "社会@@": 10439, "パウロ": 10440, "アプローチ": 10441, "*": 10442, "オド@@": 10443, "いろ": 10444, "査": 10445, "代々": 10446, "1886": 10447, "見直し": 10448, "語源": 10449, "師匠": 10450, "惨@@": 10451, "キス": 10452, "WOR@@": 10453, "パシフィ@@": 10454, "セブン": 10455, "ur": 10456, "スロー": 10457, "使える": 10458, "残存": 10459, "曾@@": 10460, "投球": 10461, "曽": 10462, "ラード": 10463, "メニュー": 10464, "エ・@@": 10465, "sk@@": 10466, "洛": 10467, "ライヴ": 10468, "カップリング": 10469, "殿@@": 10470, "立て@@": 10471, "玩具": 10472, "告白": 10473, "プロセッサ": 10474, "ブリン": 10475, "アルゴリズム": 10476, "えよ": 10477, "浮か@@": 10478, "á@@": 10479, "交際": 10480, "マキ@@": 10481, "MVP": 10482, "姫路": 10483, "台頭": 10484, "ボール@@": 10485, "エー": 10486, "ジャック・@@": 10487, "シック": 10488, "仮想": 10489, "槍": 10490, "ヒン@@": 10491, "化粧": 10492, "バリー": 10493, "ドリーム": 10494, "コッ@@": 10495, "赤字": 10496, "辞退": 10497, "冠し": 10498, "かい@@": 10499, "欠場": 10500, "噴火": 10501, "もら@@": 10502, "ant": 10503, "1892": 10504, "立憲": 10505, "アンテナ": 10506, "乙@@": 10507, "自動的": 10508, "高崎": 10509, "戒@@": 10510, "採掘": 10511, "以": 10512, "実戦": 10513, "童": 10514, "綾@@": 10515, "歳@@": 10516, "中華": 10517, "フェア": 10518, "勧告": 10519, "ヨハン・@@": 10520, "アレクサンド@@": 10521, "デート": 10522, "フリードリヒ": 10523, "テレビ局": 10524, "ix": 10525, "NI@@": 10526, "隷@@": 10527, "朝鮮半島": 10528, "多大": 10529, "論じ": 10530, "松田": 10531, "Love": 10532, "朝鮮@@": 10533, "コメ@@": 10534, "追跡": 10535, "注釈": 10536, "引き起こし": 10537, "ディン": 10538, "らしく": 10539, "婦人": 10540, "ビア@@": 10541, "高木": 10542, "幅広く": 10543, "耕": 10544, "旗@@": 10545, "越後": 10546, "名目": 10547, "ロイヤル": 10548, "津波": 10549, "吾@@": 10550, "につき": 10551, "ストレート": 10552, "★": 10553, "非常@@": 10554, "親衛隊": 10555, "生み出し": 10556, "厩舎": 10557, "金銭": 10558, "ザス": 10559, "地方裁判所": 10560, "パス@@": 10561, "泳@@": 10562, "友好": 10563, "ロマ@@": 10564, "撤@@": 10565, "アイ": 10566, "興業": 10567, "づき": 10568, "耐え": 10569, "こだ@@": 10570, "停車場": 10571, "中佐": 10572, "南京": 10573, "オイ@@": 10574, "禅": 10575, "療養": 10576, "グリーン@@": 10577, "ザーズ": 10578, "こん": 10579, "プー@@": 10580, "エレベーター": 10581, "協奏曲": 10582, "伏見": 10583, "句@@": 10584, "公益": 10585, "西武@@": 10586, "訪@@": 10587, "掛": 10588, "ッズ": 10589, "ガイ": 10590, "無く@@": 10591, "クレイ@@": 10592, "農地": 10593, "敢@@": 10594, "落下": 10595, "加わる": 10596, "るみ": 10597, "ッシャー": 10598, "飢@@": 10599, "橘": 10600, "瑞": 10601, "日程": 10602, "黒田": 10603, "初日": 10604, "調節": 10605, "鉱物": 10606, "皆": 10607, "不全": 10608, "穀@@": 10609, "ガイド": 10610, "大山": 10611, "ムハンマ@@": 10612, "DD@@": 10613, "ワンマン": 10614, "本当に": 10615, "進展": 10616, "引き起こす": 10617, "理念": 10618, "埋め": 10619, "けど": 10620, "スケール": 10621, "マネジメント": 10622, "ビーム": 10623, "ヴォ": 10624, "HS": 10625, "ンドゥ@@": 10626, "ツォ@@": 10627, "セントラル": 10628, "ぜん": 10629, "釈@@": 10630, "工程": 10631, "子爵": 10632, "塊": 10633, "裁判官": 10634, "呈": 10635, "典@@": 10636, "半径": 10637, "ホークス": 10638, "鋭@@": 10639, "制服": 10640, "ホイール": 10641, "Music": 10642, "供": 10643, "継@@": 10644, "しろ": 10645, "1887": 10646, "係数": 10647, "エンス": 10648, "綿": 10649, "好評": 10650, "斜面": 10651, "iss@@": 10652, "許し": 10653, "惜@@": 10654, "小島": 10655, "俗@@": 10656, "招聘": 10657, "後日": 10658, "甚@@": 10659, "剛@@": 10660, "Fran@@": 10661, "リティー": 10662, "ムニ@@": 10663, "オブ・ザ・@@": 10664, "聞く": 10665, "捕食": 10666, "国産": 10667, "きょく": 10668, "かわ@@": 10669, "軌": 10670, "勢い": 10671, "繁": 10672, "珍しく": 10673, "女子大学": 10674, "8000": 10675, "野川": 10676, "祥@@": 10677, "出入口": 10678, "枯@@": 10679, "削@@": 10680, "てん@@": 10681, "本拠": 10682, "討ち": 10683, "土器": 10684, "ユニオン": 10685, "創始": 10686, "Gu@@": 10687, "単行": 10688, "RS": 10689, "同市": 10690, "庶@@": 10691, "硬": 10692, "棋士": 10693, "プラザ": 10694, "フィラデルフィア": 10695, "シフト": 10696, "クラーク": 10697, "三つ": 10698, "陸奥": 10699, "WBA": 10700, "砲塔": 10701, "いつ": 10702, "存@@": 10703, "古川": 10704, "アテネ": 10705, "さき": 10706, "皮切り": 10707, "平等": 10708, "セント@@": 10709, "退学": 10710, "引き上げ": 10711, "めよ": 10712, "他方": 10713, "ウ・@@": 10714, "確か": 10715, "分かる": 10716, "八王子": 10717, "ベラ@@": 10718, "4000": 10719, "手伝@@": 10720, "恐竜": 10721, "和平": 10722, "きゅう": 10723, "救急": 10724, "考": 10725, "仮面ライダー": 10726, "頂@@": 10727, "渓谷": 10728, "改築": 10729, "加熱": 10730, "写本": 10731, "補強": 10732, "聞": 10733, "絶え": 10734, "一気に": 10735, "出会う": 10736, "チェック": 10737, "クール": 10738, "ts": 10739, "セク@@": 10740, "聞き": 10741, "水産": 10742, "タイムズ": 10743, "量子": 10744, "習得": 10745, "集積": 10746, "岐@@": 10747, "ロイヤ@@": 10748, "ライズ": 10749, "バイト": 10750, "中でも": 10751, "馬力": 10752, "位@@": 10753, "ip": 10754, "食用": 10755, "威@@": 10756, "橋梁": 10757, "寄贈": 10758, "ソニック": 10759, "キネ@@": 10760, "狩@@": 10761, "ゴールデン@@": 10762, "SH@@": 10763, "債権": 10764, "ドロ": 10765, "ぞう": 10766, "狼": 10767, "1869": 10768, "ラミ@@": 10769, "1878": 10770, "狩猟": 10771, "猿": 10772, "地面": 10773, "乙": 10774, "ォ": 10775, "彰@@": 10776, "邸宅": 10777, "受け取っ": 10778, "とり@@": 10779, "壮@@": 10780, "塚@@": 10781, "プレミアム": 10782, "ハド@@": 10783, "マリー": 10784, "Ab@@": 10785, "唄": 10786, "シャトル": 10787, "か国": 10788, "晶": 10789, "明るい": 10790, "孫@@": 10791, "ペルシア": 10792, "援@@": 10793, "徹底": 10794, "ピンク": 10795, "パブリ@@": 10796, "芳": 10797, "定住": 10798, "Fre@@": 10799, "立法": 10800, "牟@@": 10801, "バレ@@": 10802, "アバ@@": 10803, "泥": 10804, "高地": 10805, "正常": 10806, "Live": 10807, "手前": 10808, "仮定": 10809, "めい": 10810, "Met@@": 10811, "アリス": 10812, "浅草": 10813, "浸透": 10814, "追わ": 10815, "祐@@": 10816, "上空": 10817, "om": 10818, "幻": 10819, "向い": 10820, "令@@": 10821, "ニック@@": 10822, "6000": 10823, "ふじ": 10824, "タリー": 10825, "シニア": 10826, "スプリング": 10827, "整数": 10828, "右側": 10829, "ディスプレイ": 10830, "105": 10831, "首席": 10832, "マンガ": 10833, "しゅ@@": 10834, "用品": 10835, "隈": 10836, "連動": 10837, "臣@@": 10838, "起きる": 10839, "再選": 10840, "oo": 10841, "生育": 10842, "労働党": 10843, "工芸": 10844, "相模": 10845, "歌い": 10846, "憧れ": 10847, "起動": 10848, "消化": 10849, "カウ@@": 10850, "助言": 10851, "kW": 10852, "エンターテインメント": 10853, "畿@@": 10854, "太守": 10855, "俵": 10856, "久保": 10857, "プト": 10858, "ファッ@@": 10859, "ひと": 10860, "気動車": 10861, "手続": 10862, "カザ@@": 10863, "入り@@": 10864, "ットー": 10865, "なかなか": 10866, "書簡": 10867, "望む": 10868, "西暦": 10869, "ハロ@@": 10870, "トリー@@": 10871, "可決": 10872, "袖": 10873, "旗艦": 10874, "エミ@@": 10875, "育ち": 10876, "市電": 10877, "だり": 10878, "日本一": 10879, "責": 10880, "指数": 10881, "そもそも": 10882, "再興": 10883, "載せ": 10884, "グローバル": 10885, "yn@@": 10886, "異動": 10887, "制圧": 10888, "マイクロ": 10889, "術@@": 10890, "ハンター": 10891, "Ro@@": 10892, "孤立": 10893, "号@@": 10894, "性愛": 10895, "ISO": 10896, "誉": 10897, "防災": 10898, "FW": 10899, "ボクサー": 10900, "with": 10901, "早朝": 10902, "ビング": 10903, "過激": 10904, "ゼネ@@": 10905, "替える": 10906, "幼児": 10907, "セカンド": 10908, "みち": 10909, "実態": 10910, "組ま": 10911, "利点": 10912, "リスナー": 10913, "重工業": 10914, "告知": 10915, "フォワード": 10916, "進軍": 10917, "扶@@": 10918, "ポケモン": 10919, "舌": 10920, "セフ": 10921, "洞窟": 10922, "115": 10923, "横綱": 10924, "吉野": 10925, "月曜日": 10926, "セリエ": 10927, "水泳": 10928, "擁護": 10929, "多発": 10930, "明かし": 10931, "ウォーター": 10932, "les": 10933, "リーム": 10934, "man@@": 10935, "体調": 10936, "ボウ@@": 10937, "ort": 10938, "皇族": 10939, "懐": 10940, "がい": 10941, "本尊": 10942, "ディス": 10943, "ちな@@": 10944, "請": 10945, "隠れ": 10946, "撃退": 10947, "大日本帝国": 10948, "伝わっ": 10949, "\"、@@": 10950, "誤解": 10951, "直轄": 10952, "倫": 10953, "駿": 10954, "フェイス": 10955, "スプ@@": 10956, "芝@@": 10957, "マウン@@": 10958, "上方": 10959, "スキル": 10960, "mi": 10961, "馴@@": 10962, "プレーヤー": 10963, "択@@": 10964, "ソックス": 10965, "ライオン": 10966, "ロコ@@": 10967, "従う": 10968, "ロッコ": 10969, "イラ@@": 10970, "外務": 10971, "実証": 10972, "主教": 10973, "肺": 10974, "倒す": 10975, "伊豆": 10976, "デッキ": 10977, "アナウンス": 10978, "ニコ": 10979, "台地": 10980, "コント": 10981, "いま": 10982, "過ごす": 10983, "自国": 10984, "Mic@@": 10985, "好み": 10986, "ネク@@": 10987, "自由党": 10988, "モン・@@": 10989, "プレゼント": 10990, "都内": 10991, "赤軍": 10992, "探索": 10993, "奮@@": 10994, "SI": 10995, "負う": 10996, "倒産": 10997, "小泉": 10998, "らえ": 10999, "ナビ@@": 11000, "症候群": 11001, "條": 11002, "ドン@@": 11003, "ボランティア": 11004, "NFL": 11005, "大久保": 11006, "雌": 11007, "ラス・@@": 11008, "略奪": 11009, "LA": 11010, "合法": 11011, "巡る": 11012, "VO@@": 11013, "アンティ@@": 11014, "入り口": 11015, "メアリー": 11016, "標": 11017, "もう@@": 11018, "元帥": 11019, "並べ": 11020, "先駆け": 11021, "渋@@": 11022, "宇宙船": 11023, "大切": 11024, "キャラ@@": 11025, "飲料": 11026, "司祭": 11027, "題名": 11028, "原田": 11029, "LP": 11030, "軍用": 11031, "ネット@@": 11032, "オブ@@": 11033, "三井": 11034, "103": 11035, "補償": 11036, "相違": 11037, "薄い": 11038, "You": 11039, "坪": 11040, "1860": 11041, "ホン": 11042, "Comm@@": 11043, "はん": 11044, "運搬": 11045, "在地": 11046, "伊東": 11047, "フランソ@@": 11048, "高まり": 11049, "レーシング@@": 11050, "é": 11051, "la": 11052, "やら": 11053, "世間": 11054, "ぐち": 11055, "破綻": 11056, "いつ@@": 11057, "測量": 11058, "家屋": 11059, "台詞": 11060, "工夫": 11061, "踏まえ": 11062, "パキスタン": 11063, "耐久": 11064, "朝日新聞": 11065, "差異": 11066, "分かれる": 11067, "閣僚": 11068, "プロレスラー": 11069, "植": 11070, "左側": 11071, "てい": 11072, "ナレーション": 11073, "ONE": 11074, "塁手": 11075, "ポジ@@": 11076, "ast": 11077, "褒@@": 11078, "ard@@": 11079, "難民": 11080, "生きる": 11081, "エージェント": 11082, "有罪": 11083, "増やし": 11084, "一等": 11085, "には": 11086, "BBC": 11087, "係": 11088, "シル": 11089, "アフガニスタン": 11090, "ron@@": 11091, "標識": 11092, "ポンプ": 11093, "有数": 11094, "ヨル@@": 11095, "ain": 11096, "任さ": 11097, "中国@@": 11098, "並びに": 11099, "ストール": 11100, "墓@@": 11101, "リアル@@": 11102, "小松": 11103, "ie@@": 11104, "警視庁": 11105, "愛好": 11106, "去@@": 11107, "殴@@": 11108, "1882": 11109, "血管": 11110, "ボーイング": 11111, "フォース": 11112, "日本旅客鉄道": 11113, "一門": 11114, "1876": 11115, "兄@@": 11116, "ブルック@@": 11117, "ソル@@": 11118, "ton": 11119, "図ら": 11120, "デヴィ@@": 11121, "デバイス": 11122, "ET": 11123, "ATO": 11124, "ぎょ": 11125, "拳銃": 11126, "AKB": 11127, "戴@@": 11128, "一揆": 11129, "太夫": 11130, "ポルノ": 11131, "コンスタンティ@@": 11132, "ウルトラ": 11133, "よう@@": 11134, "生前": 11135, "DD": 11136, "衝": 11137, "1800": 11138, "ムル@@": 11139, "忠実": 11140, "れい": 11141, "混同": 11142, "柏": 11143, "入隊": 11144, "謀": 11145, "介護": 11146, "いろ@@": 11147, "積分": 11148, "ティン": 11149, "セイ": 11150, "ノーベル": 11151, "曹": 11152, "オク@@": 11153, "VS": 11154, "ネ・@@": 11155, "Linux": 11156, "ere": 11157, "途上": 11158, "特有": 11159, "本数": 11160, "嗣@@": 11161, "ネス@@": 11162, "旗本": 11163, "作動": 11164, "170": 11165, "se@@": 11166, "告発": 11167, "じょう@@": 11168, "佐世保": 11169, "イリノイ": 11170, "-）": 11171, "必須": 11172, "小売": 11173, "攻勢": 11174, "ミュージ@@": 11175, "°": 11176, "LS": 11177, "勝手": 11178, "十字": 11179, "はら": 11180, "仮面": 11181, "刷@@": 11182, "ヒャ@@": 11183, "テイラー": 11184, "磨@@": 11185, "全車": 11186, "te@@": 11187, "取れ": 11188, "仮名": 11189, "了": 11190, "マカ@@": 11191, "障": 11192, "載@@": 11193, "山内": 11194, "オラ@@": 11195, "据え": 11196, "復讐": 11197, "合体": 11198, "フレー@@": 11199, "サイド@@": 11200, "日立": 11201, "迎@@": 11202, "主砲": 11203, "たた@@": 11204, "フェン": 11205, "ティア@@": 11206, "高温": 11207, "祖先": 11208, "大井": 11209, "ウズ@@": 11210, "如": 11211, "中国人": 11212, "PR": 11213, "偉大": 11214, "管制": 11215, "張っ": 11216, "ブドウ": 11217, "めぐる": 11218, "携@@": 11219, "恋@@": 11220, "テール": 11221, "移る": 11222, "胆": 11223, "囲碁": 11224, "スーツ": 11225, "それほど": 11226, "渡す": 11227, "鹿島": 11228, "天候": 11229, "タウ@@": 11230, "コーン": 11231, "ライオンズ": 11232, "一塁": 11233, "ベンチ": 11234, "ホラー": 11235, "意志": 11236, "犯@@": 11237, "グアイ": 11238, "敗れる": 11239, "付随": 11240, "申し出": 11241, "投下": 11242, "欠点": 11243, "供用": 11244, "掌握": 11245, "ザイ@@": 11246, "ボス@@": 11247, "緊張": 11248, "歯科": 11249, "客室": 11250, "ゆう@@": 11251, "ign": 11252, "弾圧": 11253, "えて": 11254, "英文": 11255, "翻@@": 11256, "ッシュ・@@": 11257, "2021": 11258, "エッセ@@": 11259, "支": 11260, "侵害": 11261, "アリゾ@@": 11262, "udi@@": 11263, "1879": 11264, "順序": 11265, "コック": 11266, "ire": 11267, "兼務": 11268, "破産": 11269, "カミ@@": 11270, "けい@@": 11271, "車輪": 11272, "襲わ": 11273, "聖職": 11274, "交付": 11275, "欲しい": 11276, "ヴィア": 11277, "コク": 11278, "ae": 11279, "待っ": 11280, "バク@@": 11281, "丁@@": 11282, "親善": 11283, "ダート": 11284, "魔女": 11285, "脚@@": 11286, "先代": 11287, "モジュール": 11288, "重い": 11289, "潔": 11290, "ルートヴィ@@": 11291, "マーティン": 11292, "任官": 11293, "シネマ": 11294, "難しく": 11295, "楽しむ": 11296, "タナ@@": 11297, "パワー@@": 11298, "文法": 11299, "大谷": 11300, "活かし": 11301, "運ば": 11302, "就": 11303, "順調": 11304, "喧@@": 11305, "流さ": 11306, "去る": 11307, "石田": 11308, "朱@@": 11309, "政界": 11310, "タイム@@": 11311, "シネ@@": 11312, "題@@": 11313, "缶": 11314, "モ・@@": 11315, "抽選": 11316, "ぼう": 11317, "裔": 11318, "納言": 11319, "オープ@@": 11320, "賊": 11321, "注文": 11322, "首脳": 11323, "露出": 11324, "かかり": 11325, "ver@@": 11326, "!!@@": 11327, "美子": 11328, "ビタ@@": 11329, "オックス@@": 11330, "現職": 11331, "両側": 11332, "青い": 11333, "用車": 11334, "住人": 11335, "用水": 11336, "サウス": 11337, "教団": 11338, "月頃": 11339, "おう": 11340, "不在": 11341, "道館": 11342, "セグ@@": 11343, "New": 11344, "道徳": 11345, "秩@@": 11346, "商工": 11347, "SC@@": 11348, "堆積": 11349, "主権": 11350, "誤": 11351, "歌わ": 11352, "欲@@": 11353, "東アジア": 11354, "フロー@@": 11355, "音楽家": 11356, "彩@@": 11357, "スペクトル": 11358, "槽": 11359, "トリオ": 11360, "ちょうど": 11361, "辱": 11362, "どんな": 11363, "醍@@": 11364, "位置付け": 11365, "ウィルソン": 11366, "持続": 11367, "太陽系": 11368, "ジャイ@@": 11369, "1881": 11370, "線形": 11371, "火力": 11372, "名所": 11373, "悲劇": 11374, "ディビ@@": 11375, "間接": 11376, "絵本": 11377, "ブッシュ": 11378, "滅@@": 11379, "動く": 11380, "決断": 11381, "帰る": 11382, "ダニ@@": 11383, "大田": 11384, "ミリ": 11385, "カイ": 11386, "サンス": 11387, "ライブラ@@": 11388, "チケット": 11389, "書類": 11390, "旭": 11391, "お互い": 11392, "1874": 11393, "項@@": 11394, "後輩": 11395, "ロマン": 11396, "じゅう": 11397, "ロード@@": 11398, "タリ@@": 11399, "111": 11400, "恩": 11401, "自称": 11402, "幡": 11403, "流れ@@": 11404, "越前": 11405, "名乗り": 11406, "粒": 11407, "異例": 11408, "けれ": 11409, "横山": 11410, "原稿": 11411, "乃": 11412, "黙@@": 11413, "反論": 11414, "支える": 11415, "嫌い": 11416, "マルチ": 11417, "賃@@": 11418, "迫っ": 11419, "素晴@@": 11420, "手がける": 11421, "天気": 11422, "基幹": 11423, "好ん": 11424, "マンチェスター": 11425, "灘": 11426, "フェンダー": 11427, "雀": 11428, "シンガーソングライター": 11429, "附": 11430, "ネッ@@": 11431, "食糧": 11432, "鍋": 11433, "ばら": 11434, "113": 11435, "吉川": 11436, "抑える": 11437, "永久": 11438, "復旧": 11439, "オート@@": 11440, "災": 11441, "中小": 11442, "たん": 11443, "間違い": 11444, "奪っ": 11445, "五十@@": 11446, "ホンダ": 11447, "感じる": 11448, "詰": 11449, "レシ@@": 11450, "フィ": 11451, "カジ@@": 11452, "直ちに": 11453, "強豪": 11454, "側近": 11455, "胎@@": 11456, "無関係": 11457, "計測": 11458, "マヌ@@": 11459, "ヘン": 11460, "キット": 11461, "LA@@": 11462, "祥": 11463, "含める": 11464, "陰謀": 11465, "慢": 11466, "急遽": 11467, "侍@@": 11468, "スターリン": 11469, "オファー": 11470, "エレク@@": 11471, "啓": 11472, "脇@@": 11473, "ディーン": 11474, "1875": 11475, "弁護": 11476, "与党": 11477, "リンカーン": 11478, "集英社": 11479, "始動": 11480, "ニュージャージー": 11481, "もはや": 11482, "マジック": 11483, "ドック": 11484, "アドベンチャー": 11485, "牙": 11486, "コロ": 11487, "BOX": 11488, "放射線": 11489, "式典": 11490, "春秋": 11491, "でしょ": 11492, "ou": 11493, "磯@@": 11494, "暮らす": 11495, "オートバイ": 11496, "ana": 11497, "開店": 11498, "連敗": 11499, "オブジェクト": 11500, "陶": 11501, "名鉄": 11502, "ヴィ": 11503, "able": 11504, "小路": 11505, "ソフトバンク": 11506, "%（": 11507, "UF@@": 11508, "下関": 11509, "輝い": 11510, "換える": 11511, "営利": 11512, "各駅": 11513, "yl@@": 11514, "松井": 11515, "敦@@": 11516, "醸造": 11517, "輌": 11518, "ロジー": 11519, "火星": 11520, "バウ@@": 11521, "天下": 11522, "卵@@": 11523, "体内": 11524, "イア": 11525, "WO@@": 11526, "飯田": 11527, "広げる": 11528, "遺構": 11529, "３": 11530, "頼朝": 11531, "追求": 11532, "寿命": 11533, "安田": 11534, "降水": 11535, "住吉": 11536, "柴田": 11537, "ギン": 11538, "変遷": 11539, "マウ@@": 11540, "招き": 11541, "ics": 11542, "Mk": 11543, "詣": 11544, "菊池": 11545, "焼き@@": 11546, "是@@": 11547, "届け": 11548, "シカ": 11549, "TD": 11550, "県庁": 11551, "南朝": 11552, "ニウム": 11553, "グッズ": 11554, "導い": 11555, "新興": 11556, "国内外": 11557, "ペラ": 11558, "まる@@": 11559, "1877": 11560, "エクスプレス": 11561, "､": 11562, "拒絶": 11563, "検察@@": 11564, "結婚式": 11565, "メリット": 11566, "船橋": 11567, "書房": 11568, "バット": 11569, "する@@": 11570, "天王@@": 11571, "),": 11572, "種別": 11573, "動脈": 11574, "tt@@": 11575, "重傷": 11576, "蓄積": 11577, "本州": 11578, "患@@": 11579, "媒体": 11580, "大内": 11581, "糖@@": 11582, "晃": 11583, "写像": 11584, "透@@": 11585, "決定的": 11586, "作物": 11587, "ノベル": 11588, "永遠": 11589, "大夫": 11590, "BM@@": 11591, "よって": 11592, "質@@": 11593, "入ら": 11594, "婚約": 11595, "円形": 11596, "エンジニア": 11597, "磁": 11598, "前橋": 11599, "ムン@@": 11600, "歩い": 11601, "ナル・@@": 11602, "有権者": 11603, "フー": 11604, "テイメント": 11605, "ill": 11606, "嘆@@": 11607, "クイーン": 11608, "ギャラリー": 11609, "UC@@": 11610, "自作": 11611, "獅@@": 11612, "村山": 11613, "サード": 11614, "Gre@@": 11615, "ヴュル@@": 11616, "代謝": 11617, "延び": 11618, "つか@@": 11619, "JST": 11620, "石原": 11621, "エントリー": 11622, "内務省": 11623, "熟": 11624, "カート": 11625, "菊": 11626, "伝記": 11627, "イノ@@": 11628, "乾": 11629, "まつ@@": 11630, "アダルト": 11631, "遣": 11632, "従っ": 11633, "桃": 11634, "ロイド": 11635, "第@@": 11636, "放つ": 11637, "重点": 11638, "メガ": 11639, "アトラン@@": 11640, "フェラーリ": 11641, "イブ@@": 11642, ".,": 11643, "腫": 11644, "具合": 11645, "公布": 11646, "傍": 11647, "在日": 11648, "1200": 11649, "一角": 11650, "神戸@@": 11651, "ale": 11652, "ハーモニー": 11653, "狩り": 11654, "FF": 11655, "待ち@@": 11656, "閉じ": 11657, "ンズ@@": 11658, "シベリア": 11659, "色彩": 11660, "中毒": 11661, "ミャ@@": 11662, "から@@": 11663, "ames": 11664, "方形": 11665, "紙幣": 11666, "笹@@": 11667, "狂": 11668, "淀@@": 11669, "ヨーク": 11670, "ハミルトン": 11671, "IT@@": 11672, "墳@@": 11673, "カシ@@": 11674, "iki": 11675, "通商": 11676, "ゃ": 11677, "祖母": 11678, "願寺": 11679, "岡本": 11680, "咲": 11681, "コロラ@@": 11682, "ナトリウム": 11683, "樺@@": 11684, "テンベルク": 11685, "鎮守": 11686, "温暖": 11687, "伝道": 11688, "バルブ": 11689, ")』": 11690, "渓": 11691, "予告": 11692, "虫@@": 11693, "ワット": 11694, "ハード@@": 11695, "託@@": 11696, "ジャース": 11697, "プレー@@": 11698, "集まる": 11699, "藍": 11700, "卒業生": 11701, "製薬": 11702, "傑@@": 11703, "長州": 11704, "連れ@@": 11705, "小笠原": 11706, "102": 11707, "都立": 11708, "想像": 11709, "崩れ": 11710, "ハーフ": 11711, "停留": 11712, "詠@@": 11713, "錦@@": 11714, "太鼓": 11715, "Gr@@": 11716, "AF": 11717, "ドレス": 11718, "シャツ": 11719, "Gro@@": 11720, "外し": 11721, "ヘリ@@": 11722, "それから": 11723, "マリー@@": 11724, "1883": 11725, "挨拶": 11726, "リャ": 11727, "ヘル": 11728, "ロープ": 11729, "ロッテ": 11730, "食堂": 11731, "軍艦": 11732, "シェー@@": 11733, "アンドリ@@": 11734, "エピ@@": 11735, "内務": 11736, "張り@@": 11737, "心配": 11738, "MBS": 11739, "描@@": 11740, "コンパクト": 11741, "FL": 11742, "全曲": 11743, "嫁": 11744, "ビル・@@": 11745, "菩薩": 11746, "ターゲット": 11747, "飽@@": 11748, "賜": 11749, "リャ@@": 11750, "に際し": 11751, "援軍": 11752, "ぽ@@": 11753, "拾@@": 11754, "ベースボール": 11755, "おこなっ": 11756, "泥@@": 11757, "笛": 11758, "最長": 11759, "思考": 11760, "釈": 11761, "無所属": 11762, "1864": 11763, "会っ": 11764, "依": 11765, "セキュリティ": 11766, "考古学": 11767, "Bi@@": 11768, "112": 11769, "GE": 11770, "階層": 11771, "累計": 11772, "マルティ@@": 11773, "タイミング": 11774, "人格": 11775, "テンド@@": 11776, "ルク@@": 11777, "おん": 11778, "洪": 11779, "大敗": 11780, "エスト": 11781, "戯曲": 11782, "モリ": 11783, "シミュレーション": 11784, "ボブ": 11785, "視察": 11786, "ヤ・@@": 11787, "おおむね": 11788, "ライナー": 11789, "ダグラス": 11790, "プライズ": 11791, "デント": 11792, "名声": 11793, "目立つ": 11794, "リーマン": 11795, "高かっ": 11796, "艦船": 11797, "rit@@": 11798, "ai": 11799, "現金": 11800, "けし": 11801, "椎": 11802, "ドッ@@": 11803, "旅館": 11804, "川越": 11805, "全土": 11806, "到@@": 11807, "ツイ@@": 11808, "騰": 11809, "返っ": 11810, "封じ": 11811, "App@@": 11812, "講和": 11813, "股": 11814, "つながり": 11815, "ation@@": 11816, "CF": 11817, "収穫": 11818, "バスク": 11819, "繰り返す": 11820, "和名": 11821, "[[": 11822, "ペリ@@": 11823, "日付": 11824, "リメイク": 11825, "ディズ@@": 11826, "増える": 11827, "公衆": 11828, "明治大学": 11829, "偶@@": 11830, "ビリー": 11831, "蔣@@": 11832, "社内": 11833, "ks": 11834, "30@@": 11835, "踊": 11836, "自立": 11837, "水野": 11838, "徴収": 11839, "売買": 11840, "イング@@": 11841, "株@@": 11842, "戻@@": 11843, "ケート": 11844, "о@@": 11845, "タッチ": 11846, "動向": 11847, "グラビア": 11848, "突如": 11849, "砂糖": 11850, "汲@@": 11851, "フォーマット": 11852, "デトロ@@": 11853, "INE": 11854, "ハリー": 11855, "王室": 11856, "在来": 11857, "ミシガン": 11858, "MUS@@": 11859, "系図": 11860, "1862": 11861, "解明": 11862, "サンタ@@": 11863, "につれて": 11864, "Ass@@": 11865, "川上": 11866, "植え": 11867, "断層": 11868, "奪還": 11869, "みどり": 11870, "わから": 11871, "稽古": 11872, "ポスター": 11873, "パレスチナ": 11874, "ハードウェア": 11875, "グルー@@": 11876, "ジェーム@@": 11877, "ION": 11878, "詐@@": 11879, "いで": 11880, "Pi@@": 11881, "目黒": 11882, "豚": 11883, "スピリ@@": 11884, "メリー@@": 11885, "てつ": 11886, "重なる": 11887, "マド@@": 11888, "棚": 11889, "基部": 11890, "積み": 11891, "背中": 11892, "鶏": 11893, "un": 11894, "爪": 11895, "単式": 11896, "行なう": 11897, "正統": 11898, "\"-": 11899, "体力": 11900, "増設": 11901, "クォ@@": 11902, "Sm@@": 11903, "景気": 11904, "ヤマト": 11905, "キスタン": 11906, "儀@@": 11907, "くに": 11908, "好調": 11909, "ヘッセン": 11910, "ドミ@@": 11911, "トゥス": 11912, ")、@@": 11913, "府中": 11914, "泊@@": 11915, "に当たる": 11916, "諱": 11917, "実務": 11918, "人質": 11919, "スカー@@": 11920, "はる": 11921, "逸話": 11922, "ラジオ@@": 11923, "親しま": 11924, "哺@@": 11925, "マジ@@": 11926, "バブル": 11927, "スカル": 11928, "7000": 11929, "多少": 11930, "数少ない": 11931, "直接的": 11932, "広義": 11933, "リオデジャネイロ": 11934, "’": 11935, "now@@": 11936, "釣@@": 11937, "キム": 11938, "デビ@@": 11939, "ソウ": 11940, "国体": 11941, "冷房": 11942, "ロール@@": 11943, "主席": 11944, "ちょ@@": 11945, "意義": 11946, "下町": 11947, "たかっ": 11948, "ock": 11949, "地上波": 11950, "内外": 11951, "エリック": 11952, "John": 11953, "カテゴリー": 11954, "囚@@": 11955, "八戸": 11956, "日産": 11957, "惹@@": 11958, "ut": 11959, "博覧": 11960, "ケネディ": 11961, "AND": 11962, "仲介": 11963, "ホワイト@@": 11964, "フォーミュ@@": 11965, "GP@@": 11966, "ドラゴ@@": 11967, "コンパ@@": 11968, "京王": 11969, "メトロ@@": 11970, "バー・@@": 11971, "rig@@": 11972, "マーケティング": 11973, "もと@@": 11974, "縮@@": 11975, "グレゴ@@": 11976, "トヨタ@@": 11977, "慣習": 11978, "上旬": 11979, "キエフ": 11980, "スチュ@@": 11981, "考察": 11982, "嫡男": 11983, "硫黄": 11984, "世論": 11985, "家畜": 11986, "内海": 11987, "遅く": 11988, "麺": 11989, "ヴィチ": 11990, "腫瘍": 11991, "打た": 11992, "リン・@@": 11993, "遠藤": 11994, "ギャグ": 11995, "ヘク@@": 11996, "唱@@": 11997, "会い": 11998, "等級": 11999, "分から": 12000, "GB": 12001, "懇@@": 12002, "トリノ": 12003, "コーラス": 12004, "少尉": 12005, "中型": 12006, "トマス・@@": 12007, "栗": 12008, "国務": 12009, "テネシー": 12010, "のぶ": 12011, "高野": 12012, "豪華": 12013, "適合": 12014, "磐": 12015, "日向": 12016, "キャロ@@": 12017, "昇": 12018, "章@@": 12019, "割引": 12020, "につ@@": 12021, "苑": 12022, "左派": 12023, "メロディ": 12024, "ットル": 12025, "CR": 12026, "牧野": 12027, "辰": 12028, "渋滞": 12029, "更": 12030, "進水": 12031, "広東": 12032, "紡@@": 12033, "有無": 12034, "後楽園": 12035, "親族": 12036, "なに": 12037, "Mo@@": 12038, "武力": 12039, "素数": 12040, "ass": 12041, "所管": 12042, "不利": 12043, "パンチ": 12044, "バリエーション": 12045, "藻": 12046, "わしい": 12047, "GS": 12048, "民事": 12049, "西村": 12050, "肩@@": 12051, "犯行": 12052, "悟@@": 12053, "宝塚@@": 12054, "東大": 12055, "日活": 12056, "義務@@": 12057, "辞典": 12058, "昨@@": 12059, "容器": 12060, "キョ@@": 12061, "藤沢": 12062, "ナラ": 12063, "mp@@": 12064, "HC": 12065, "賜@@": 12066, "水源": 12067, "遼": 12068, "ビートルズ": 12069, "控訴": 12070, "Com@@": 12071, "諸説": 12072, "唱": 12073, "シリン@@": 12074, "決着": 12075, "産出": 12076, "ボルン": 12077, "アミ": 12078, "山陽": 12079, "保っ": 12080, "みや": 12081, "聞か": 12082, "109": 12083, "同局": 12084, "遍": 12085, "滞": 12086, "湊": 12087, "ナポリ": 12088, "アピール": 12089, "たつ": 12090, "きわ@@": 12091, "乗る": 12092, "gl@@": 12093, "PER": 12094, "陳@@": 12095, "ビジ@@": 12096, "担": 12097, "後援": 12098, "ブリー@@": 12099, "ドコモ": 12100, "SHO@@": 12101, "GK": 12102, "不十分": 12103, "ft": 12104, "La": 12105, "アルバイト": 12106, "総数": 12107, "ドルフ": 12108, "トレイ@@": 12109, "BI@@": 12110, "暴動": 12111, "旭川": 12112, "ist": 12113, "町長": 12114, "刻ま": 12115, "ジェイ": 12116, "ワーク@@": 12117, "入国": 12118, "ナーズ": 12119, "洗礼": 12120, "ペテルブルク": 12121, "辿@@": 12122, "去り": 12123, "ヘッドコーチ": 12124, "監修": 12125, "模索": 12126, "窒素": 12127, "オーネ": 12128, "アパート": 12129, "紛@@": 12130, "移り@@": 12131, "留め": 12132, "測": 12133, "タービン": 12134, "系@@": 12135, "墓所": 12136, "ビッグ@@": 12137, "もたらさ": 12138, "主将": 12139, "熊谷": 12140, "アルミニ@@": 12141, "抽@@": 12142, "ハルト": 12143, "胞子": 12144, "大き@@": 12145, "テレビジョン": 12146, "馬車": 12147, "木曜": 12148, "サック": 12149, "酒井": 12150, "ソール": 12151, "粗@@": 12152, "先駆": 12153, "Net@@": 12154, "750": 12155, "高価": 12156, "生え": 12157, "実写": 12158, "オイル": 12159, "陣地": 12160, "Per@@": 12161, "展覧": 12162, "筋肉": 12163, "県議会": 12164, "町田": 12165, "曰く": 12166, "密接": 12167, "溶液": 12168, "漫才": 12169, "sch@@": 12170, "領有": 12171, "ake": 12172, "くま": 12173, "im": 12174, "追撃": 12175, "尋常": 12176, "袁@@": 12177, "投じ": 12178, "大地": 12179, "通知": 12180, "招か": 12181, "幅@@": 12182, "採取": 12183, "メット": 12184, "イラストレーター": 12185, "1863": 12186, "有馬": 12187, "指標": 12188, "元老": 12189, "御所": 12190, "入会": 12191, "転写": 12192, "若松": 12193, "HO": 12194, "特筆": 12195, "決まり": 12196, "エレクトロ@@": 12197, "聴": 12198, "海水": 12199, "浅野": 12200, "ルーン": 12201, "メラ@@": 12202, "近接": 12203, "携わる": 12204, "デレ@@": 12205, "℃@@": 12206, "ディン@@": 12207, "藤井": 12208, "ub": 12209, "今川": 12210, "スケジュール": 12211, "テクノロジー": 12212, "験@@": 12213, "LOVE": 12214, "母艦": 12215, "教官": 12216, "ブロー@@": 12217, "アシュ@@": 12218, "門下": 12219, "津軽": 12220, "掛け@@": 12221, "審@@": 12222, "パレード": 12223, "見学": 12224, "帽子": 12225, "女の子": 12226, "ゾ": 12227, "マリオ": 12228, "アルファベット": 12229, "Blu": 12230, "蕭@@": 12231, "哲": 12232, "特権": 12233, "留まり": 12234, "使え": 12235, "Gl@@": 12236, "交わし": 12237, "Jav@@": 12238, "西口": 12239, "目覚@@": 12240, "コイン": 12241, "発する": 12242, "宛@@": 12243, "国旗": 12244, "発現": 12245, "院長": 12246, "苗@@": 12247, "フジ": 12248, "ほん@@": 12249, "線型": 12250, "使節": 12251, "緯": 12252, "マルクス": 12253, "co": 12254, "愛し": 12255, "賞賛": 12256, "襲名": 12257, "小学館": 12258, "侵@@": 12259, "ニール": 12260, "北上": 12261, "SR": 12262, "ノイ@@": 12263, "ニュ@@": 12264, "Pr@@": 12265, "パート@@": 12266, "各々": 12267, "除外": 12268, "汗": 12269, "追い込ま": 12270, "取り扱い": 12271, "ランダム": 12272, "スケー@@": 12273, "阪神@@": 12274, "婚姻": 12275, "全集": 12276, "エイ": 12277, "膨大": 12278, "掴@@": 12279, "釜": 12280, "ムービー": 12281, "くだ@@": 12282, "大塚": 12283, "原始": 12284, "アントニオ": 12285, "床@@": 12286, "フリ": 12287, "パイプ": 12288, "造営": 12289, "踏切": 12290, "三好": 12291, "振る@@": 12292, "紅白": 12293, "TR@@": 12294, "製鉄": 12295, "アーキテク@@": 12296, "えい": 12297, "スカイ@@": 12298, "ハプ@@": 12299, "ディア@@": 12300, "見事": 12301, "少なかっ": 12302, "ミネソ@@": 12303, "トロン@@": 12304, "専務": 12305, "ヴェン": 12306, "東山": 12307, "ピース": 12308, "スパル@@": 12309, "莫@@": 12310, "向か@@": 12311, "もらい": 12312, "築か": 12313, "プラスチック": 12314, "「\"": 12315, "ハインリヒ": 12316, "LED": 12317, "微": 12318, "同誌": 12319, "書物": 12320, "先祖": 12321, "j": 12322, "タント": 12323, "じょう": 12324, "いん": 12325, "旧姓": 12326, "具@@": 12327, "ハウ": 12328, "リーニ": 12329, "セント・@@": 12330, "座標": 12331, "ハンドル": 12332, "立川": 12333, "免除": 12334, "フード": 12335, "oft": 12336, "でし": 12337, "逃走": 12338, "コンピューター": 12339, "舵": 12340, "サロン": 12341, "役人": 12342, "ロードレース": 12343, "短期": 12344, "ネー": 12345, "ネン": 12346, "出家": 12347, "ヴィルヘルム": 12348, "神道": 12349, "寝": 12350, "ミシシッピ": 12351, "耗": 12352, "巧@@": 12353, "千代": 12354, "河原": 12355, "天国": 12356, "OK@@": 12357, "漁": 12358, "本山": 12359, "合金": 12360, "tr@@": 12361, "馬身": 12362, "胞": 12363, "抜": 12364, "イデ@@": 12365, "儲@@": 12366, "就く": 12367, "春日": 12368, "役場": 12369, "サーチ": 12370, "1867": 12371, "昼間": 12372, "ection": 12373, "450": 12374, "恒": 12375, "JRA": 12376, "ox@@": 12377, "島田": 12378, "コーポレーション": 12379, "樹木": 12380, "ラック": 12381, "水田": 12382, "サスペン@@": 12383, "丹波": 12384, "ミネ@@": 12385, "ジング": 12386, "野外": 12387, "正しく": 12388, "ギニア": 12389, "蓄@@": 12390, "捨@@": 12391, "見舞わ": 12392, "フレン@@": 12393, "麻雀": 12394, "天才": 12395, "木製": 12396, "脂肪": 12397, "安芸": 12398, "南北戦争": 12399, "王女": 12400, "カルロス": 12401, "起工": 12402, "レオン": 12403, "鞍": 12404, "分泌": 12405, "ムラ@@": 12406, "肌": 12407, "湘南": 12408, "マンハッタン": 12409, "返り": 12410, "モンテ@@": 12411, "取扱": 12412, "La@@": 12413, "葛": 12414, "挿絵": 12415, "代わる": 12416, "ライフル": 12417, "需": 12418, "ムーア": 12419, "カタルーニャ": 12420, "迎撃": 12421, "挺": 12422, "党派": 12423, "僧侶": 12424, "イリ@@": 12425, "WWE": 12426, "Bar@@": 12427, "花火": 12428, "放置": 12429, "借金": 12430, "ホロ@@": 12431, "サンディエ@@": 12432, "高額": 12433, "縄文": 12434, "駅名": 12435, "シルバー": 12436, "アソ@@": 12437, "毅": 12438, "地盤": 12439, "センス": 12440, "迅@@": 12441, "争っ": 12442, "he@@": 12443, "Vol": 12444, "中尉": 12445, "イスラ@@": 12446, "航@@": 12447, "商船": 12448, "一行": 12449, "着く": 12450, "上限": 12451, "没収": 12452, "寛文": 12453, "真空": 12454, "広範囲": 12455, "遂行": 12456, "OVA": 12457, "佳": 12458, "麻薬": 12459, "志向": 12460, "わさ": 12461, "マケドニア": 12462, "きょう@@": 12463, "ケンタッキー": 12464, "通告": 12465, "込@@": 12466, "パロディ": 12467, "検事": 12468, "抽出": 12469, "セントル@@": 12470, "-』": 12471, "断絶": 12472, "マウント": 12473, "砕@@": 12474, "試": 12475, "政務": 12476, "重奏": 12477, "ずれ": 12478, "改定": 12479, "入れ替え": 12480, "世田谷": 12481, "了@@": 12482, "ヘンリー・@@": 12483, "WA@@": 12484, "運送": 12485, "北端": 12486, "対岸": 12487, "かれ": 12488, "多額": 12489, "休養": 12490, "属性": 12491, "引き分け": 12492, "費@@": 12493, "所要": 12494, "ā@@": 12495, "ウルトラマン": 12496, "Wor@@": 12497, "横浜@@": 12498, "威力": 12499, "哀@@": 12500, "一般@@": 12501, "磯": 12502, "per": 12503, "WW@@": 12504, "凱@@": 12505, "MB": 12506, "鑑定": 12507, "スタンダード": 12508, "遺族": 12509, "rist@@": 12510, "趣旨": 12511, "att@@": 12512, "Cent@@": 12513, "遺": 12514, "堤@@": 12515, "弓@@": 12516, "枢": 12517, "中原": 12518, "キノ@@": 12519, "アムステル@@": 12520, "大社": 12521, "インパ@@": 12522, "管内": 12523, "ラマ": 12524, "ネコ": 12525, "ファーム": 12526, "畔": 12527, "楽し@@": 12528, "カエ@@": 12529, "フェース": 12530, "旋回": 12531, "授け": 12532, "ウマ": 12533, "CK": 12534, "三条": 12535, "ゲッ@@": 12536, "名門": 12537, "追悼": 12538, "脂@@": 12539, "喜び": 12540, "ドナ@@": 12541, "Rob@@": 12542, "1861": 12543, "ナウ": 12544, "行える": 12545, "シェル@@": 12546, "必殺": 12547, "トランプ": 12548, "ジェリー": 12549, "ond@@": 12550, "セ・@@": 12551, "自衛": 12552, "渕": 12553, "廟": 12554, "砲弾": 12555, "いったん": 12556, "トゥル@@": 12557, "サギ": 12558, "ホッケー": 12559, "侯爵": 12560, "フォーラム": 12561, "Po@@": 12562, "取り戻し": 12563, "教諭": 12564, "ウルフ": 12565, "柴": 12566, "改組": 12567, "掃": 12568, "世話": 12569, "プラハ": 12570, "麦@@": 12571, "阿波": 12572, "慢性": 12573, "小沢": 12574, "リッチ@@": 12575, "CH": 12576, "労働省": 12577, "クイ@@": 12578, "郡山": 12579, "大王": 12580, "バルト": 12581, "粛@@": 12582, "苦戦": 12583, "大砲": 12584, "右手": 12585, "区内": 12586, "内田": 12587, "ノア": 12588, "拒@@": 12589, "支払う": 12590, "ネオ": 12591, "ッション": 12592, "課税": 12593, "ヒュ@@": 12594, "振る舞@@": 12595, "硬貨": 12596, "ザル@@": 12597, "ition": 12598, "ブロードウェイ": 12599, "頓@@": 12600, "ゴール@@": 12601, "元気": 12602, "外来": 12603, "ネズミ": 12604, "部員": 12605, "条項": 12606, "名古屋@@": 12607, "鷲": 12608, "終": 12609, "水面": 12610, "ワク@@": 12611, "丈@@": 12612, "標準時": 12613, "尊敬": 12614, "躍@@": 12615, "工業大学": 12616, "券@@": 12617, "間に@@": 12618, "デリック": 12619, "誘拐": 12620, "移設": 12621, "安藤": 12622, "こなし": 12623, "マダ@@": 12624, "時に": 12625, "ata": 12626, "NASA": 12627, "駆使": 12628, "訪ね": 12629, "ise": 12630, "System": 12631, "104": 12632, "国営": 12633, "1865": 12634, "超人": 12635, "応え": 12636, "ドラマー": 12637, "グー@@": 12638, "エロ@@": 12639, "モナ@@": 12640, "My": 12641, "抜け@@": 12642, "ラインナップ": 12643, "骨格": 12644, "min@@": 12645, "篤": 12646, "救う": 12647, "ベッド": 12648, "トミー": 12649, "ディアン": 12650, "待機": 12651, "弥生": 12652, "造成": 12653, "巡回": 12654, "激怒": 12655, "宗家": 12656, "妨@@": 12657, "be@@": 12658, "汎@@": 12659, "撤回": 12660, "ぼく": 12661, "ザール": 12662, "鈴": 12663, "ワールド@@": 12664, "ロウ@@": 12665, "テュー@@": 12666, "魚類": 12667, "大輔": 12668, "棺": 12669, "天然@@": 12670, "リオ・@@": 12671, "ミラ@@": 12672, "フレッド": 12673, "フリードリヒ・@@": 12674, "田辺": 12675, "桓@@": 12676, "データ@@": 12677, "肯定": 12678, "溜@@": 12679, "オーク@@": 12680, "アッ": 12681, "白石": 12682, "捧げ": 12683, "破損": 12684, "成熟": 12685, "ヴェスト@@": 12686, "シチリア": 12687, "||||@@": 12688, "叶@@": 12689, "ターボ": 12690, "ダウン@@": 12691, "太平": 12692, "スクー@@": 12693, "アミノ@@": 12694, "播磨": 12695, "墨": 12696, "国語": 12697, "一斉": 12698, "エビ": 12699, "筑波@@": 12700, "他国": 12701, "アイオ@@": 12702, "金庫": 12703, "特番": 12704, "友達": 12705, "アンダー": 12706, "内装": 12707, "腕@@": 12708, "電撃": 12709, "郎@@": 12710, "満たし": 12711, "ジョゼ@@": 12712, "Bro@@": 12713, "チェス": 12714, "笑い": 12715, "レンジャー": 12716, "ディング@@": 12717, "極東": 12718, "難易": 12719, "田原": 12720, "爆破": 12721, "飾る": 12722, "バスター@@": 12723, "強盗": 12724, "妻@@": 12725, "お前": 12726, "予報": 12727, "主人": 12728, "ファイト": 12729, "スコ・@@": 12730, "а@@": 12731, "萩@@": 12732, "ノット": 12733, "シエ@@": 12734, "ents": 12735, "アスレ@@": 12736, "クラフト": 12737, "アール": 12738, "アパ@@": 12739, "離れる": 12740, "玄関": 12741, "本物": 12742, "鼻@@": 12743, "娯楽": 12744, "オルガン": 12745, "カーン": 12746, "ゅ": 12747, "ジェフ": 12748, "あん": 12749, "虐待": 12750, "男優": 12751, "処置": 12752, "ベート": 12753, "のう": 12754, "ルーシ": 12755, "スピン": 12756, "進撃": 12757, "裸": 12758, "大関": 12759, "有人": 12760, "ock@@": 12761, "液晶": 12762, "地方@@": 12763, "否@@": 12764, "歩く": 12765, "連立": 12766, "ソナタ": 12767, "カルタ@@": 12768, "読書": 12769, "津川": 12770, "ホリ@@": 12771, "機銃": 12772, "春日@@": 12773, "転落": 12774, "包括": 12775, "役所": 12776, "中国共産党": 12777, "RT": 12778, "尖@@": 12779, "デンブルク": 12780, "エノ@@": 12781, "複製": 12782, "無理": 12783, "Co": 12784, "凶@@": 12785, "再発": 12786, "をめぐって": 12787, "冷戦": 12788, "SK@@": 12789, "Gen@@": 12790, "盗": 12791, "キンス": 12792, "ヤンキース": 12793, "のぼる": 12794, "ローク": 12795, "1866": 12796, "皿": 12797, "ギス": 12798, "ement": 12799, "ヲ": 12800, "ワース": 12801, "ボイス": 12802, "−": 12803, "等しい": 12804, "菅": 12805, "積ん": 12806, "ルマン": 12807, "リトル": 12808, "諸侯": 12809, "天神": 12810, "アリング": 12811, "歓迎": 12812, "アンナ": 12813, "隙": 12814, "稲": 12815, "?」": 12816, "ルーキー": 12817, "デルタ": 12818, "AB": 12819, "臼@@": 12820, "満点": 12821, "幸せ": 12822, "会派": 12823, "カナ": 12824, "Records": 12825, "適": 12826, "舟@@": 12827, "却@@": 12828, "薫": 12829, "睦": 12830, "烏@@": 12831, "民主@@": 12832, "貸": 12833, "経済@@": 12834, "軟": 12835, "潤@@": 12836, "尼": 12837, "輸@@": 12838, "採": 12839, "圏@@": 12840, "覆": 12841, "塵": 12842, "これ@@": 12843, "form@@": 12844, "腰@@": 12845, "テッド": 12846, "拉@@": 12847, "遂": 12848, "灌@@": 12849, "たと@@": 12850, "牌": 12851, "札@@": 12852, "奨@@": 12853, "宜@@": 12854, "爵": 12855, "憂@@": 12856, "忌": 12857, "@": 12858, "綿@@": 12859, "眺@@": 12860, "黙": 12861, "セッ@@": 12862, "ウェー": 12863, "嗣": 12864, "ö@@": 12865, "錬": 12866, "互@@": 12867, "歓@@": 12868, "諦@@": 12869, "太陽@@": 12870, "漬@@": 12871, "ミナル": 12872, "アントニ@@": 12873, "フジ@@": 12874, "覇@@": 12875, "粛": 12876, "飾@@": 12877, "恭@@": 12878, "レント": 12879, "コンピュー@@": 12880, "帆": 12881, "吹": 12882, "梶@@": 12883, "榴@@": 12884, "じて": 12885, "午": 12886, "嘩": 12887, "ダイヤ@@": 12888, "生ま@@": 12889, "テキ@@": 12890, "材@@": 12891, "賑@@": 12892, "鷹@@": 12893, "oh@@": 12894, "ハイン@@": 12895, "坦": 12896, "チア": 12897, "控@@": 12898, "吏": 12899, "巧": 12900, "杜": 12901, "錐": 12902, "μ": 12903, "痕@@": 12904, "ä@@": 12905, "韻": 12906, "識@@": 12907, "慮": 12908, "則@@": 12909, "傍@@": 12910, "マネー@@": 12911, "癖": 12912, "婿": 12913, "戒": 12914, "嫁@@": 12915, "ストラ": 12916, "旬": 12917, "暁": 12918, "昼@@": 12919, "隔": 12920, "暗": 12921, "‐": 12922, "宴": 12923, "ゥ@@": 12924, "碑@@": 12925, "〇": 12926, "マニア": 12927, "誕": 12928, "獲@@": 12929, "憎@@": 12930, "姦": 12931, "肥": 12932, "窮@@": 12933, "臭": 12934, "濃": 12935, "的@@": 12936, "アリー": 12937, "淡": 12938, "圓": 12939, "腔": 12940, "謳@@": 12941, "戯": 12942, "針@@": 12943, "Sy@@": 12944, "澤@@": 12945, "舎@@": 12946, "虹": 12947, "俸": 12948, "煮@@": 12949, "桐": 12950, "{": 12951, "明る@@": 12952, "ウト": 12953, "臨": 12954, "互い": 12955, "潟": 12956, "互": 12957, "ファンタ@@": 12958, "珍": 12959, "傘": 12960, "状@@": 12961, "借": 12962, "捕": 12963, "イント": 12964, "酔": 12965, "剖": 12966, "販@@": 12967, "援": 12968, "殉@@": 12969, "衝@@": 12970, "廻@@": 12971, "究@@": 12972, "伸": 12973, "朗@@": 12974, "鴨@@": 12975, ",@@": 12976, "摘@@": 12977, "族@@": 12978, "テネ@@": 12979, "As@@": 12980, "複": 12981, "董": 12982, "撰": 12983, "様@@": 12984, "世界@@": 12985, "抄": 12986, "ロボ@@": 12987, "駄": 12988, "欺": 12989, "隋": 12990, "待": 12991, "舗@@": 12992, "した": 12993, "畳": 12994, "垣@@": 12995, "索": 12996, "洛@@": 12997, "枠@@": 12998, "メイト": 12999, "學": 13000, "巳": 13001, "俣": 13002, "萩": 13003, "и@@": 13004, "雌@@": 13005, "宏@@": 13006, "垂": 13007, "レスラー": 13008, "楚": 13009, "僧@@": 13010, "姫@@": 13011, "輸": 13012, "貰@@": 13013, "ヴィルヘル@@": 13014, "＞": 13015, "胴": 13016, "スタッ@@": 13017, "巴": 13018, "奔@@": 13019, "逸": 13020, "酵": 13021, "窯": 13022, "ビエ@@": 13023, "枝@@": 13024, "腐": 13025, "穂@@": 13026, "ヂ@@": 13027, "衆@@": 13028, "桂@@": 13029, "あく@@": 13030, "附@@": 13031, "触": 13032, "慎": 13033, "慌": 13034, "懲@@": 13035, "０": 13036, "í@@": 13037, "湧@@": 13038, "~": 13039, "q": 13040, "睡@@": 13041, "フト@@": 13042, "租@@": 13043, "桑": 13044, "嘘": 13045, "疾@@": 13046, "看@@": 13047, "にく@@": 13048, "媒": 13049, "ヴィル@@": 13050, "のぼ@@": 13051, "察@@": 13052, "璧": 13053, "苗": 13054, "ベニア": 13055, "満た@@": 13056, "鑑@@": 13057, "瑠@@": 13058, "燃": 13059, "菩@@": 13060, "障@@": 13061, "餅": 13062, "汰": 13063, "普": 13064, "縛": 13065, "溢@@": 13066, "やく": 13067, "賄@@": 13068, "ぎる": 13069, "峡": 13070, "靖@@": 13071, "〔": 13072, "緒@@": 13073, "逢@@": 13074, "誌@@": 13075, "倭": 13076, "棲@@": 13077, "逝@@": 13078, "チェスター": 13079, "VA": 13080, "菌@@": 13081, "藝": 13082, "縄@@": 13083, "匿@@": 13084, "件@@": 13085, "〕": 13086, "傭@@": 13087, "蝦@@": 13088, "シカ@@": 13089, "篤@@": 13090, "帖": 13091, "擦": 13092, "凌@@": 13093, "斑@@": 13094, "かけ@@": 13095, "尹": 13096, "頁": 13097, "ユニバー@@": 13098, "臭@@": 13099, "庇@@": 13100, "癒@@": 13101, "脆@@": 13102, "荒": 13103, "硝@@": 13104, "陥": 13105, "もっ@@": 13106, "美術@@": 13107, "猶@@": 13108, "ダブル@@": 13109, "遥@@": 13110, "爾": 13111, "斑": 13112, "縄": 13113, "ビュー": 13114, "淳@@": 13115, "酔@@": 13116, "峙": 13117, "虎@@": 13118, "鳩@@": 13119, "盟@@": 13120, "ヘ": 13121, "スポー@@": 13122, "赦": 13123, "瓦@@": 13124, "陀@@": 13125, "菜@@": 13126, "督@@": 13127, "ó@@": 13128, "どり": 13129, "きっ@@": 13130, "粋": 13131, "旅客@@": 13132, "辛": 13133, "域@@": 13134, "カテ@@": 13135, "涼@@": 13136, "We@@": 13137, "謝": 13138, "タク@@": 13139, "；": 13140, "震災": 13141, "釧@@": 13142, "録@@": 13143, "人民共和国": 13144, "唇": 13145, "季@@": 13146, "デザ@@": 13147, "歪@@": 13148, "ヘッド@@": 13149, "しか@@": 13150, "締": 13151, "扇": 13152, "斜": 13153, "穴@@": 13154, "匹@@": 13155, "亘@@": 13156, "避@@": 13157, "ベット": 13158, "col@@": 13159, "迂@@": 13160, "験": 13161, "梨@@": 13162, "沸@@": 13163, "譚": 13164, "グリー@@": 13165, "盲@@": 13166, "丞": 13167, "諮@@": 13168, "やっ@@": 13169, "祷": 13170, "嚢": 13171, "悠": 13172, "靖": 13173, "肘": 13174, "猿@@": 13175, "鐵": 13176, "琵@@": 13177, "泳": 13178, "帽": 13179, "キリスト@@": 13180, "墨@@": 13181, "チーフ": 13182, "＜": 13183, "たって": 13184, "恭": 13185, "瞭": 13186, "棘": 13187, "倣": 13188, "ミュン@@": 13189, "圭": 13190, "出来@@": 13191, "到": 13192, "停車@@": 13193, "災@@": 13194, "梱": 13195, "執": 13196, "噛@@": 13197, "鏡@@": 13198, "鱗": 13199, "ディレ@@": 13200, "烏": 13201, "緯@@": 13202, "焉": 13203, "批@@": 13204, "購@@": 13205, "アレク@@": 13206, "案@@": 13207, "襄": 13208, "罪@@": 13209, "狩": 13210, "喚": 13211, "頸@@": 13212, "贈": 13213, "杖": 13214, "е@@": 13215, "堰": 13216, "評@@": 13217, "トイ@@": 13218, "呉@@": 13219, "輿": 13220, "泡": 13221, "綬@@": 13222, "コマ@@": 13223, "アカデ@@": 13224, "ノイ": 13225, "音楽@@": 13226, "崔": 13227, "アニメー@@": 13228, "緊@@": 13229, "なが@@": 13230, "忌@@": 13231, "聡": 13232, "カテゴ@@": 13233, "р@@": 13234, "茅@@": 13235, "叔@@": 13236, "晩@@": 13237, "壺": 13238, "ا@@": 13239, "浅": 13240, "凡@@": 13241, "買": 13242, "纏@@": 13243, "虚": 13244, "敦": 13245, "坊@@": 13246, "薩@@": 13247, "憩": 13248, "奄@@": 13249, "鴨": 13250, "翁": 13251, "朝日@@": 13252, "祇@@": 13253, "ジオ": 13254, "繰@@": 13255, "坑": 13256, "トラー": 13257, "蔽": 13258, "倣@@": 13259, "合わ@@": 13260, "挫": 13261, "和歌@@": 13262, "ぺ@@": 13263, "腎": 13264, "畜@@": 13265, "揺": 13266, "*@@": 13267, "н@@": 13268, "You@@": 13269, "偶": 13270, "かつ@@": 13271, "メイク": 13272, "オリンピ@@": 13273, "峯": 13274, "チーム@@": 13275, "やす@@": 13276, "柵": 13277, "害@@": 13278, "縫@@": 13279, "束@@": 13280, "Mus@@": 13281, "およ@@": 13282, "謝@@": 13283, "旅客鉄道": 13284, "凍": 13285, "衰": 13286, "蝶": 13287, "魅@@": 13288, "嶽": 13289, "葵": 13290, "紐": 13291, "払": 13292, "卸@@": 13293, "鞍@@": 13294, "屈": 13295, "洗": 13296, "苻@@": 13297, "瞳": 13298, "慕@@": 13299, "４": 13300, "シーズ@@": 13301, "忘@@": 13302, "邪": 13303, "蓄": 13304, "随": 13305, "〒": 13306, "閑@@": 13307, "バイス": 13308, "其@@": 13309, "この@@": 13310, "栖": 13311, "彙": 13312, "舗": 13313, "箕@@": 13314, "盧": 13315, "阻@@": 13316, "乏": 13317, "京都@@": 13318, "髪@@": 13319, "廣": 13320, "弦楽": 13321, "とん@@": 13322, "楠@@": 13323, "鉢": 13324, "壕": 13325, "ドウ": 13326, "筒@@": 13327, "リト@@": 13328, "駄@@": 13329, "宇": 13330, "訪": 13331, "胃@@": 13332, "プレミ@@": 13333, "廉": 13334, "ころ@@": 13335, "國@@": 13336, "窮": 13337, "暴": 13338, "怖@@": 13339, "痺": 13340, "干": 13341, "棲": 13342, "憤@@": 13343, "届": 13344, "恥@@": 13345, "醐@@": 13346, "陪@@": 13347, "拷@@": 13348, "紳@@": 13349, "惟@@": 13350, "肝": 13351, "諜@@": 13352, "閲": 13353, "谷川": 13354, "畠@@": 13355, "奮": 13356, "ぷ": 13357, "猟@@": 13358, "維": 13359, "卑@@": 13360, "界@@": 13361, "抵@@": 13362, "●": 13363, "埴@@": 13364, "狗": 13365, "態@@": 13366, "醤@@": 13367, "罹@@": 13368, "累@@": 13369, "荻@@": 13370, "溝@@": 13371, "窪": 13372, "是": 13373, "披@@": 13374, "婆": 13375, "プロテ@@": 13376, "蛍@@": 13377, "踏": 13378, "モンゴ@@": 13379, "砕": 13380, "ヒロ@@": 13381, "廉@@": 13382, "寸": 13383, "q@@": 13384, "症@@": 13385, "委": 13386, "放射@@": 13387, "レッジ": 13388, "伽@@": 13389, "PG": 13390, "晒@@": 13391, "ゅう": 13392, "スペン@@": 13393, "摂": 13394, "ステル@@": 13395, "宛": 13396, "筐": 13397, "嫌": 13398, "蛇@@": 13399, "樋@@": 13400, "共和国": 13401, "幌": 13402, "帆@@": 13403, "幣": 13404, "冊@@": 13405, "クレジ@@": 13406, "ジル": 13407, "蜜": 13408, "マガ@@": 13409, "咸@@": 13410, "踪": 13411, "薬品": 13412, "畠": 13413, "囚": 13414, "頻@@": 13415, "即": 13416, "滞@@": 13417, "圭@@": 13418, "訓@@": 13419, "猟": 13420, "乞@@": 13421, "賞@@": 13422, "鮮": 13423, "述@@": 13424, "チュア": 13425, "の子": 13426, "コンピ@@": 13427, "勲@@": 13428, "函": 13429, "捻@@": 13430, "魯@@": 13431, "楠": 13432, "凄@@": 13433, "縛@@": 13434, "額@@": 13435, "綾": 13436, "杵": 13437, "繊@@": 13438, "紗": 13439, "珍@@": 13440, "鎧": 13441, "斎@@": 13442, "伐@@": 13443, "敢": 13444, "臓@@": 13445, "冗@@": 13446, "鵬": 13447, "勢@@": 13448, "呼": 13449, "蘭@@": 13450, "膳": 13451, "オリジ@@": 13452, "レンジ": 13453, "伺@@": 13454, "譜@@": 13455, "オプ@@": 13456, "いった": 13457, "際@@": 13458, "ャ": 13459, "コンスタン@@": 13460, "考え@@": 13461, "疫@@": 13462, "播": 13463, "悔@@": 13464, "稚@@": 13465, "宰": 13466, "融": 13467, "尻@@": 13468, "ローマ@@": 13469, "潟@@": 13470, "嗜@@": 13471, "騨": 13472, "恨@@": 13473, "隕@@": 13474, "佑": 13475, "ポケ@@": 13476, "蜂@@": 13477, "梓": 13478, "耶@@": 13479, "占": 13480, "責@@": 13481, "叉": 13482, "耳@@": 13483, "勘": 13484, "しく@@": 13485, "$": 13486, "ネシア": 13487, "須賀": 13488, "媒@@": 13489, "斯@@": 13490, "瞬": 13491, "既": 13492, "棚@@": 13493, "ウルトラ@@": 13494, "易@@": 13495, "蒼": 13496, "wit@@": 13497, "霞": 13498, "侮@@": 13499, "シッ@@": 13500, "萌@@": 13501, "冥@@": 13502, "畳@@": 13503, "ちら": 13504, "Joh@@": 13505, "錠": 13506, "胃": 13507, "虐": 13508, "迦": 13509, "スタント": 13510, "或@@": 13511, "―@@": 13512, "霧@@": 13513, "è@@": 13514, "瞬@@": 13515, "祝": 13516, "穏": 13517, "嵯@@": 13518, "鍋@@": 13519, "席@@": 13520, "捉@@": 13521, "絆": 13522, "逝": 13523, "絹": 13524, "剰": 13525, "遷": 13526, "溺@@": 13527, "塁打": 13528, "ァ": 13529, "プログラ@@": 13530, "いは": 13531, "邑": 13532, "汎": 13533, "怠@@": 13534, "塞@@": 13535, "ギリ@@": 13536, "柔": 13537, "駆": 13538, "料@@": 13539, "顧": 13540, "鎌@@": 13541, "５": 13542, "黎@@": 13543, "ドキュ@@": 13544, "奨": 13545, "索@@": 13546, "狐": 13547, "亭@@": 13548, "警察@@": 13549, "NH@@": 13550, "糾@@": 13551, "はや": 13552, "ML@@": 13553, "萬": 13554, "枕": 13555, "芥@@": 13556, "渠": 13557, "梁@@": 13558, "遼@@": 13559, "愚@@": 13560, "還@@": 13561, "克": 13562, "謙": 13563, "チナ": 13564, "²@@": 13565, "琴@@": 13566, "但@@": 13567, "幌@@": 13568, "ディエ@@": 13569, "醒": 13570, "獄@@": 13571, "喰@@": 13572, "甫": 13573, "庫@@": 13574, "隙@@": 13575, "アテ@@": 13576, "階@@": 13577, "梗@@": 13578, "CP@@": 13579, "庸": 13580, "榎@@": 13581, "怪": 13582, "堕@@": 13583, "陀": 13584, "甘": 13585, "栓": 13586, "とめ": 13587, "険@@": 13588, "滴": 13589, "した@@": 13590, "維@@": 13591, "タンパ@@": 13592, "叱@@": 13593, "凡": 13594, "NT@@": 13595, "据@@": 13596, "扁@@": 13597, "胡@@": 13598, "メキシ@@": 13599, "菓": 13600, "ケーション": 13601, "酢@@": 13602, "罠": 13603, "ラテン@@": 13604, "ぱ": 13605, "Inter@@": 13606, "帥": 13607, "息@@": 13608, "リンピ@@": 13609, "繕": 13610, "起こ@@": 13611, "幾": 13612, "喉": 13613, "誘": 13614, "もの@@": 13615, "惣": 13616, "不動@@": 13617, "輔@@": 13618, "もち@@": 13619, "キャプ@@": 13620, "しま@@": 13621, "婦@@": 13622, "がっこう": 13623, "||@@": 13624, "焦@@": 13625, "：@@": 13626, "茨@@": 13627, "人民@@": 13628, "署@@": 13629, "寵@@": 13630, "プロダ@@": 13631, "わせ": 13632, "像@@": 13633, "煮": 13634, "Lin@@": 13635, "整": 13636, "翅": 13637, "｡": 13638, "授": 13639, "嘱@@": 13640, "殖@@": 13641, "鍾@@": 13642, "麗@@": 13643, "礫": 13644, "パレ@@": 13645, "ワシン@@": 13646, "構": 13647, "с@@": 13648, "輛": 13649, "眞": 13650, "その@@": 13651, "湿": 13652, "ホール@@": 13653, "麿": 13654, "騙@@": 13655, "諭@@": 13656, "罷@@": 13657, "エンタ@@": 13658, "傑": 13659, "拍": 13660, "ジメント": 13661, "トロール": 13662, "窺@@": 13663, "播@@": 13664, "プラット@@": 13665, "縞": 13666, "［": 13667, "逓@@": 13668, "プター": 13669, "浙@@": 13670, "捧@@": 13671, "穀": 13672, "激": 13673, "惧": 13674, "囃@@": 13675, "揖@@": 13676, "ロンド@@": 13677, "ダード": 13678, "範@@": 13679, "冶": 13680, "苦": 13681, "姪": 13682, "孵@@": 13683, "勉": 13684, "醸@@": 13685, "ザベ@@": 13686, "ワイ": 13687, "Goo@@": 13688, "|-||": 13689, "矮@@": 13690, "］": 13691, "閏": 13692, "オースト@@": 13693, "鋒": 13694, "惨": 13695, "ｍ": 13696, "云@@": 13697, "暑": 13698, "仇": 13699, "謹@@": 13700, "舘": 13701, "腸@@": 13702, "弔@@": 13703, "煽@@": 13704, "ぁ": 13705, "僚": 13706, "妄@@": 13707, "襟": 13708, "宙": 13709, "亮@@": 13710, "·": 13711, "抵": 13712, "粟@@": 13713, "桟@@": 13714, "盆": 13715, "挫@@": 13716, "濫": 13717, "埠@@": 13718, "跡@@": 13719, "煉@@": 13720, "ヅ@@": 13721, "陵@@": 13722, "暦@@": 13723, "氾@@": 13724, "尺@@": 13725, "款": 13726, "叡@@": 13727, "斐@@": 13728, "扮": 13729, "地下@@": 13730, "員@@": 13731, "鶏@@": 13732, "塗": 13733, "桶": 13734, "ジュール": 13735, "邑@@": 13736, "訂@@": 13737, "椿": 13738, "慧": 13739, "馳@@": 13740, "胆@@": 13741, "撫@@": 13742, "ガニ@@": 13743, "裸@@": 13744, "施": 13745, "扱@@": 13746, "ケンタ@@": 13747, "鳩": 13748, "巣@@": 13749, "級@@": 13750, "自由@@": 13751, "シド@@": 13752, "鈍@@": 13753, "萌": 13754, "程@@": 13755, "苛@@": 13756, "孔@@": 13757, "レギュ@@": 13758, "瀧": 13759, "幼": 13760, "ヴェネ@@": 13761, "鄧@@": 13762, "刈": 13763, "堵": 13764, "鍵@@": 13765, "寅": 13766, "壌": 13767, "漆@@": 13768, "峡@@": 13769, "癒": 13770, "柴@@": 13771, "又@@": 13772, "荊@@": 13773, "添": 13774, "堪@@": 13775, "庭@@": 13776, "矯@@": 13777, "霜": 13778, "誓": 13779, "牢": 13780, "ても": 13781, "スタジ@@": 13782, "蔡@@": 13783, "ベンチャー": 13784, "畑@@": 13785, "揮@@": 13786, "蒲": 13787, "櫓": 13788, "厩": 13789, "暮": 13790, "究": 13791, "悩": 13792, "坪@@": 13793, "嬢": 13794, "崗@@": 13795, "窪@@": 13796, "償@@": 13797, "璃": 13798, "爬@@": 13799, "—": 13800, "鞘": 13801, "鵜@@": 13802, "鴻@@": 13803, "牽@@": 13804, "悦": 13805, "宴@@": 13806, "嘱": 13807, "凸": 13808, "ld": 13809, "軒@@": 13810, "噌": 13811, "マケ@@": 13812, "饉": 13813, "稔": 13814, "揶@@": 13815, "揄": 13816, "琶@@": 13817, "マサ@@": 13818, "パーソナ@@": 13819, "貨@@": 13820, "バラエ@@": 13821, "苫@@": 13822, "価@@": 13823, "スコット@@": 13824, "痕": 13825, "銭@@": 13826, "徴": 13827, "影@@": 13828, "亨": 13829, "迎": 13830, "原子@@": 13831, "鷲@@": 13832, "曇": 13833, "л@@": 13834, "兆@@": 13835, "罵@@": 13836, "霞@@": 13837, "駕": 13838, "矩": 13839, "嶼": 13840, "嬉@@": 13841, "坑@@": 13842, "アルファ@@": 13843, "窓@@": 13844, "壮": 13845, "卒@@": 13846, "惑@@": 13847, "峰@@": 13848, "隠": 13849, "惣@@": 13850, "鼓@@": 13851, "偉@@": 13852, "碁": 13853, "唯": 13854, "シミュ@@": 13855, "隅@@": 13856, "薇": 13857, "允": 13858, "悔": 13859, "т@@": 13860, "濠": 13861, "毘@@": 13862, "冨@@": 13863, "羊@@": 13864, "凹@@": 13865, "カンパ@@": 13866, "薔@@": 13867, "徒@@": 13868, "串@@": 13869, "臼": 13870, "早稲@@": 13871, "屯": 13872, "}": 13873, "詔": 13874, "忙": 13875, "炊@@": 13876, "寅@@": 13877, "均": 13878, "錫": 13879, "髭": 13880, "陛@@": 13881, "煕": 13882, "欽@@": 13883, "きる": 13884, "巌": 13885, "峻": 13886, "蹟": 13887, "к@@": 13888, "絡": 13889, "勒": 13890, "濯": 13891, "漸@@": 13892, "濡@@": 13893, "遵@@": 13894, "濁@@": 13895, "殷": 13896, "ove": 13897, "葺@@": 13898, "熙": 13899, "汝": 13900, "祠": 13901, "朋": 13902, "幽": 13903, "廻": 13904, "ちょう@@": 13905, "覧@@": 13906, "ゞ": 13907, "漆": 13908, "テクノ@@": 13909, "淮@@": 13910, "パロ@@": 13911, "}@@": 13912, "麹": 13913, "毀@@": 13914, "挽@@": 13915, "アーティ@@": 13916, "喚@@": 13917, "渦@@": 13918, "イギ@@": 13919, "姜": 13920, "ォ@@": 13921, "渤@@": 13922, "プロモー@@": 13923, "斧": 13924, "肪@@": 13925, "墟": 13926, "喋@@": 13927, "芽@@": 13928, "熙@@": 13929, "自動@@": 13930, "モニー": 13931, "薨@@": 13932, "戊@@": 13933, "弦@@": 13934, "γ": 13935, "Ζ": 13936, "讃": 13937, "糞": 13938, "濱": 13939, "ベース@@": 13940, "セロ@@": 13941, "в@@": 13942, "しくは": 13943, "秒@@": 13944, "拾": 13945, "レスト@@": 13946, "糧": 13947, "寡@@": 13948, "エジ@@": 13949, "僅@@": 13950, "約@@": 13951, "胞@@": 13952, "ラリア": 13953, "窃@@": 13954, "稚": 13955, "湧": 13956, "ッセン": 13957, "榜": 13958, "辻@@": 13959, "跋": 13960, "スポン@@": 13961, "蛋@@": 13962, "紛": 13963, "朔": 13964, "隼": 13965, "沈": 13966, "麟": 13967, "エクス@@": 13968, "アプ@@": 13969, "猪": 13970, "汪": 13971, "諫@@": 13972, "弊": 13973, "づ": 13974, "匂@@": 13975, "翼@@": 13976, "プリ": 13977, "澄@@": 13978, "楯": 13979, "叢@@": 13980, "争": 13981, "諡": 13982, "捉": 13983, "鉛@@": 13984, "憑": 13985, "才@@": 13986, "蛮": 13987, "呑@@": 13988, "まり@@": 13989, "盤@@": 13990, "ちに": 13991, "府県": 13992, "コーポ@@": 13993, "紹@@": 13994, "蚕": 13995, "Play@@": 13996, "墾": 13997, "嫉@@": 13998, "ジェント": 13999, "提": 14000, "髙@@": 14001, "策@@": 14002, "彷@@": 14003, "暑@@": 14004, "洲@@": 14005, "錬@@": 14006, "に関@@": 14007, "埼@@": 14008, "于@@": 14009, "_@@": 14010, "宍@@": 14011, "排": 14012, "團": 14013, "搾@@": 14014, "腎@@": 14015, "枕@@": 14016, "僚@@": 14017, "俯@@": 14018, "鎌": 14019, "業大学": 14020, "逐@@": 14021, "芯": 14022, "議院": 14023, "柿@@": 14024, "鼓": 14025, "かの": 14026, "馮@@": 14027, "箇@@": 14028, "夷@@": 14029, "櫻@@": 14030, "吟@@": 14031, "悠@@": 14032, "ソード": 14033, "腿": 14034, "菱@@": 14035, "舷@@": 14036, "尋": 14037, "喩": 14038, "鬱@@": 14039, "蜂": 14040, "斡@@": 14041, "ケネ@@": 14042, "妬": 14043, "惧@@": 14044, "剤@@": 14045, "隼@@": 14046, "相次@@": 14047, "体育@@": 14048, "獣@@": 14049, "患": 14050, "按@@": 14051, "赦@@": 14052, "濱@@": 14053, "挿@@": 14054, "餓@@": 14055, "陝@@": 14056, "酵@@": 14057, "渦": 14058, "藻@@": 14059, "殊@@": 14060, "喪": 14061, "擬": 14062, "掘": 14063, "翔@@": 14064, "呂@@": 14065, "アニア": 14066, "翠": 14067, "跳": 14068, "×@@": 14069, "鹿児@@": 14070, "[@@": 14071, "瞑@@": 14072, "皐@@": 14073, "湘@@": 14074, "醐": 14075, "藍@@": 14076, "刃@@": 14077, "撒@@": 14078, "寂@@": 14079, "フィラデル@@": 14080, "ぃ@@": 14081, "蔭": 14082, "含": 14083, "嘴": 14084, "惚@@": 14085, "朋@@": 14086, "民党": 14087, "学院@@": 14088, "擲@@": 14089, "盟": 14090, "顧@@": 14091, "般@@": 14092, "痢": 14093, "伎@@": 14094, "仔@@": 14095, "裾": 14096, "棒@@": 14097, "机": 14098, "勃@@": 14099, "Pla@@": 14100, "耶": 14101, "銚@@": 14102, "趣@@": 14103, "蔓@@": 14104, "捷": 14105, "杏": 14106, "閃@@": 14107, "聯@@": 14108, "紺@@": 14109, "雍@@": 14110, "徽@@": 14111, "且@@": 14112, "疹": 14113, "エリザベ@@": 14114, "まっ@@": 14115, "而@@": 14116, "琉@@": 14117, "兜": 14118, "牡@@": 14119, "巫@@": 14120, "畜": 14121, "苔": 14122, "淀": 14123, "稜": 14124, "疎": 14125, "站": 14126, "ナリスト": 14127, "々木": 14128, "晦@@": 14129, "ل@@": 14130, "楽園": 14131, "禍": 14132, "冪": 14133, "･@@": 14134, "専": 14135, "娼@@": 14136, "ランダ": 14137, "稜@@": 14138, "倭@@": 14139, "這@@": 14140, "劾": 14141, "コンセ@@": 14142, "蹄": 14143, "鱗@@": 14144, "迦@@": 14145, "匈@@": 14146, "シチ@@": 14147, "６": 14148, "姓@@": 14149, "塔@@": 14150, "デア": 14151, "７": 14152, "畿": 14153, "アプリ@@": 14154, "姉@@": 14155, "雛": 14156, "賃": 14157, "蕃": 14158, "遅": 14159, "絹@@": 14160, "碧@@": 14161, "妾": 14162, "剃@@": 14163, "嚢@@": 14164, "煩@@": 14165, "キース": 14166, "戯@@": 14167, "黎": 14168, "詮": 14169, "婚@@": 14170, "酪@@": 14171, "汐": 14172, "杏@@": 14173, "弄": 14174, "確": 14175, "塾@@": 14176, "壱@@": 14177, "漕@@": 14178, "慈": 14179, "液@@": 14180, "此@@": 14181, "拠地": 14182, "叛@@": 14183, "がっ@@": 14184, "螺@@": 14185, "妊": 14186, "攘@@": 14187, "蓋@@": 14188, "哨": 14189, "勾@@": 14190, "傅": 14191, "²": 14192, "飛行@@": 14193, "莢": 14194, "姚@@": 14195, "升": 14196, "暫@@": 14197, "嘆": 14198, "緩": 14199, "隊@@": 14200, "神奈@@": 14201, "鴻": 14202, "妓": 14203, "萼": 14204, "弧": 14205, "ula": 14206, "兎": 14207, "岳@@": 14208, "疇": 14209, "鹵@@": 14210, "藝@@": 14211, "廊@@": 14212, "昔@@": 14213, "釘": 14214, "樫": 14215, "ょく": 14216, "弟@@": 14217, "叡": 14218, "撫": 14219, "孟": 14220, "虔": 14221, "鳳@@": 14222, "怨@@": 14223, "者@@": 14224, "UE@@": 14225, "泄": 14226, "劉@@": 14227, "働": 14228, "杭": 14229, "宕": 14230, "丼": 14231, "痘": 14232, "喬": 14233, "窟": 14234, "玲@@": 14235, "エネル@@": 14236, "悦@@": 14237, "夭@@": 14238, "冒@@": 14239, "餐": 14240, "旺@@": 14241, "柿": 14242, "チャンピオン@@": 14243, "曼@@": 14244, "忙@@": 14245, "享@@": 14246, "殲@@": 14247, "旦": 14248, "檀": 14249, "彭@@": 14250, "巾": 14251, "尿@@": 14252, "劣": 14253, "賦": 14254, "１@@": 14255, "•": 14256, "遥": 14257, "催": 14258, "榛@@": 14259, "ç@@": 14260, "學@@": 14261, "槌": 14262, "径@@": 14263, "尽": 14264, "訂": 14265, "慌@@": 14266, "オンズ": 14267, "禰": 14268, "捏@@": 14269, "酢": 14270, "遍@@": 14271, "ボル": 14272, "礎": 14273, "焚@@": 14274, "貧": 14275, "篠": 14276, "誅@@": 14277, "祇": 14278, "昂": 14279, "匿": 14280, "豫@@": 14281, "賈@@": 14282, "自治@@": 14283, "頒@@": 14284, "透": 14285, "リゾ@@": 14286, "鰓": 14287, "９": 14288, "ロサンゼ@@": 14289, "■": 14290, "渾@@": 14291, "候@@": 14292, "胚": 14293, "廷": 14294, "蹴": 14295, "賓": 14296, "匡": 14297, "セントラ@@": 14298, "探": 14299, "紋@@": 14300, "Jap@@": 14301, "千代@@": 14302, "冑": 14303, "某": 14304, "飼": 14305, "擦@@": 14306, "ガリー": 14307, "逗@@": 14308, "梵@@": 14309, "誰@@": 14310, "診@@": 14311, "拳@@": 14312, "蔑": 14313, "崩": 14314, "胎": 14315, "燈@@": 14316, "輌@@": 14317, "禎": 14318, "漱@@": 14319, "滋": 14320, "訃@@": 14321, "塀": 14322, "弼": 14323, "珂": 14324, "８": 14325, "|@@": 14326, "只@@": 14327, "フェラー@@": 14328, "鎖@@": 14329, "址": 14330, "芋": 14331, "丞@@": 14332, "渓@@": 14333, "マレー@@": 14334, "Station": 14335, "粘": 14336, "峨@@": 14337, "おそ@@": 14338, "憑@@": 14339, "見舞@@": 14340, "坐@@": 14341, "コンテン@@": 14342, "覗@@": 14343, "穿@@": 14344, "荼@@": 14345, "靭@@": 14346, "煎@@": 14347, "壬": 14348, "喘@@": 14349, "趣": 14350, "渇": 14351, "邊": 14352, "縫": 14353, "ホワイ@@": 14354, "ショッ@@": 14355, "峨": 14356, "=@@": 14357, "穆": 14358, "卑": 14359, "幹@@": 14360, "仰": 14361, "齋@@": 14362, "亥": 14363, "ツィア": 14364, "佛": 14365, "ピール": 14366, "〜@@": 14367, "阜@@": 14368, "窩": 14369, "KY@@": 14370, "｣@@": 14371, "錯": 14372, "喝": 14373, "俣@@": 14374, "契": 14375, "屯@@": 14376, "もた@@": 14377, "迭": 14378, "酋@@": 14379, "駆け": 14380, "ボク@@": 14381, "漑@@": 14382, "療@@": 14383, "廷@@": 14384, "艤@@": 14385, "ナップ": 14386, "捜@@": 14387, "捜": 14388, "ディス@@": 14389, "簡": 14390, "疫": 14391, "欧@@": 14392, "裳": 14393, "薦@@": 14394, "鉾": 14395, "漫@@": 14396, "渚": 14397, "洩": 14398, "酎": 14399, "醜@@": 14400, "肇": 14401, "柱@@": 14402, "ゆる": 14403, "蜀@@": 14404, "眉": 14405, "沃": 14406, "溶": 14407, "栽": 14408, "謁": 14409, "偉": 14410, "轄": 14411, "唯@@": 14412, "リヒ": 14413, "概": 14414, "傀@@": 14415, "帳@@": 14416, "儡": 14417, "于": 14418, "アルゴ@@": 14419, "勿@@": 14420, "蔑@@": 14421, "榊@@": 14422, "冶@@": 14423, "轄@@": 14424, "刊@@": 14425, "膏": 14426, "斥": 14427, "彌": 14428, "聡@@": 14429, "ヲ@@": 14430, "隘": 14431, "斬": 14432, "豚@@": 14433, "慨": 14434, "蘆": 14435, "励": 14436, "綺@@": 14437, "痩@@": 14438, "郁": 14439, "徽": 14440, "ī@@": 14441, "亡": 14442, "栖@@": 14443, "謁@@": 14444, "衙": 14445, "萎@@": 14446, "炸@@": 14447, "š@@": 14448, "懸": 14449, "邱": 14450, "愚": 14451, "括@@": 14452, "。@@": 14453, "伍": 14454, "郁@@": 14455, "躊@@": 14456, "歌舞@@": 14457, "掻@@": 14458, "芭@@": 14459, "盃": 14460, "淑": 14461, "イラスト@@": 14462, "梢": 14463, "嘗@@": 14464, "DV@@": 14465, "籠@@": 14466, "嗅@@": 14467, "彬": 14468, "いに": 14469, "幣@@": 14470, "寇": 14471, "濁": 14472, "±": 14473, "稽": 14474, "斗@@": 14475, "范@@": 14476, "ū@@": 14477, "腱": 14478, "ぢ": 14479, "紹": 14480, "衷": 14481, "繋": 14482, "實": 14483, "吐": 14484, "餓": 14485, "汐@@": 14486, "廣@@": 14487, "鐘@@": 14488, "僕@@": 14489, "Ⅱ": 14490, "卸": 14491, "竿": 14492, "促": 14493, "喰": 14494, "蕎@@": 14495, "苞": 14496, "脩": 14497, "隈@@": 14498, "小さ@@": 14499, "菱": 14500, "累": 14501, "碧": 14502, "股@@": 14503, "テナ": 14504, "屏@@": 14505, "拗": 14506, "詫@@": 14507, "すべ@@": 14508, "拿@@": 14509, "斯": 14510, "NAS@@": 14511, "橘@@": 14512, "鋸@@": 14513, "寓@@": 14514, "采": 14515, "─": 14516, "丙": 14517, "暢": 14518, "怖": 14519, "フィラ@@": 14520, "虜": 14521, "漑": 14522, "а": 14523, "渉": 14524, "娶@@": 14525, "コラボ@@": 14526, "仔": 14527, "σ": 14528, "渥@@": 14529, "召": 14530, "φ": 14531, "蒼@@": 14532, "艶": 14533, "囲": 14534, "撲@@": 14535, "薫@@": 14536, "壽": 14537, "ぃ": 14538, "漫": 14539, "壬@@": 14540, "揉@@": 14541, "串": 14542, "ソング@@": 14543, "贄": 14544, "バレー@@": 14545, "詔@@": 14546, "鍼@@": 14547, "モバイ@@": 14548, "塹@@": 14549, "革@@": 14550, "幡@@": 14551, "婿@@": 14552, "賂": 14553, "噺": 14554, "樋": 14555, "瓜": 14556, "萬@@": 14557, "粟": 14558, "＊": 14559, "吏@@": 14560, "凶": 14561, "淑@@": 14562, "手が@@": 14563, "窒@@": 14564, "さま@@": 14565, "雁": 14566, "咽@@": 14567, "肛@@": 14568, "轟@@": 14569, "YouTub@@": 14570, "瀋@@": 14571, "賄": 14572, "小笠@@": 14573, "傳": 14574, "蕉": 14575, "鯉": 14576, "ボラン@@": 14577, "妊@@": 14578, "綬": 14579, "冀@@": 14580, "鉢@@": 14581, "厄@@": 14582, "莉@@": 14583, "魁": 14584, "Syst@@": 14585, "葺": 14586, "炒@@": 14587, "藪": 14588, "櫛": 14589, "濾@@": 14590, "甑": 14591, "縣": 14592, "捗": 14593, "朽@@": 14594, "詠": 14595, "虞": 14596, "嘔@@": 14597, "賓@@": 14598, "杭@@": 14599, "侠": 14600, "鬱": 14601, "飴": 14602, "π": 14603, "裴@@": 14604, "昆@@": 14605, "偲@@": 14606, "厨@@": 14607, "弊@@": 14608, "頬": 14609, "彫": 14610, "瀕@@": 14611, "債@@": 14612, "渇@@": 14613, "週@@": 14614, "はる@@": 14615, "コモ": 14616, "楓": 14617, "檜@@": 14618, "箔": 14619, "率@@": 14620, "宦@@": 14621, "疆@@": 14622, "า@@": 14623, "曝@@": 14624, "膵@@": 14625, "悲": 14626, "太平洋@@": 14627, "凱": 14628, "晃@@": 14629, "嶋@@": 14630, "－@@": 14631, "肋@@": 14632, "標準@@": 14633, "竪@@": 14634, "à": 14635, "薪": 14636, "憶@@": 14637, "橿@@": 14638, "壱": 14639, "眞@@": 14640, "柄@@": 14641, "剰@@": 14642, "缶@@": 14643, "盲": 14644, "彿": 14645, "閻@@": 14646, "{@@": 14647, "伽": 14648, "緻@@": 14649, "ぇ": 14650, "耆": 14651, "箸": 14652, "檜": 14653, "穣": 14654, "謂": 14655, "璋": 14656, "蛮@@": 14657, "欺@@": 14658, "É@@": 14659, "曙": 14660, "淘@@": 14661, "狼@@": 14662, "笹": 14663, "篭@@": 14664, "しば": 14665, "ร@@": 14666, "尖": 14667, "荏@@": 14668, "ブロード@@": 14669, "畝": 14670, "贅@@": 14671, "渋": 14672, "玖@@": 14673, "滋@@": 14674, "努@@": 14675, "はっ@@": 14676, "Rec@@": 14677, "セカ@@": 14678, "醒@@": 14679, "梯@@": 14680, "クトル": 14681, "蜀": 14682, "斐": 14683, "まく": 14684, "阮@@": 14685, "堡": 14686, "魯": 14687, "廓": 14688, "高等@@": 14689, "丘@@": 14690, "寂": 14691, "恥": 14692, "堯": 14693, "○@@": 14694, "戮": 14695, "シンガ@@": 14696, "鮎@@": 14697, "欣@@": 14698, "夫@@": 14699, "粗": 14700, "甕": 14701, "奔": 14702, "茹@@": 14703, "д@@": 14704, "袋@@": 14705, "玲": 14706, "嵐@@": 14707, "吻": 14708, "鸞": 14709, "و@@": 14710, "韻@@": 14711, "嵩": 14712, "鹸": 14713, "燈": 14714, "凪": 14715, "馨": 14716, "昏@@": 14717, "弐@@": 14718, "熾@@": 14719, "鼎": 14720, "怒": 14721, "軸@@": 14722, "チス": 14723, "掟": 14724, "諧": 14725, "悼@@": 14726, "歴@@": 14727, "嚇": 14728, "トヨ@@": 14729, "瘍": 14730, "昆": 14731, "旬@@": 14732, "バスケ@@": 14733, "爽@@": 14734, "稀@@": 14735, "睦@@": 14736, "鋳": 14737, "唄@@": 14738, "於": 14739, "層@@": 14740, "牢@@": 14741, "冤@@": 14742, "ユナイ@@": 14743, "迄": 14744, "僑": 14745, "アイル@@": 14746, "ε": 14747, "錨": 14748, "掩@@": 14749, "愉@@": 14750, "午@@": 14751, "也@@": 14752, "睡": 14753, "芙@@": 14754, "痴@@": 14755, "淵@@": 14756, "做": 14757, "∞": 14758, "２@@": 14759, "逼@@": 14760, "藁": 14761, "ナポ@@": 14762, "蔚@@": 14763, "Δ": 14764, "ux": 14765, "諡@@": 14766, "舌@@": 14767, "鼠": 14768, "衡@@": 14769, "しば@@": 14770, "MV@@": 14771, "蝋": 14772, "瘤": 14773, "校生": 14774, "嘲@@": 14775, "曾": 14776, "泡@@": 14777, "掾": 14778, "濫@@": 14779, "シベ@@": 14780, "リチャ@@": 14781, "ú@@": 14782, "航空@@": 14783, "曝": 14784, "盆@@": 14785, "躇": 14786, "蕊": 14787, "弩": 14788, "蝶@@": 14789, "λ": 14790, "ぴ": 14791, "脈@@": 14792, "﨑@@": 14793, "ぇ@@": 14794, "ω": 14795, "刷": 14796, "セキュ@@": 14797, "欽": 14798, "拮@@": 14799, "蒔@@": 14800, "葡@@": 14801, "姑": 14802, "アーキ@@": 14803, "采@@": 14804, "軋@@": 14805, "歓": 14806, "沌": 14807, "フロリ@@": 14808, "狸": 14809, "洒@@": 14810, "寮@@": 14811, "棟@@": 14812, "凌": 14813, "壇@@": 14814, "ñ@@": 14815, "膠@@": 14816, "僭@@": 14817, "č@@": 14818, "ゲット": 14819, "珪@@": 14820, "珊@@": 14821, "恨": 14822, "叢": 14823, "δ": 14824, "梯": 14825, "袴": 14826, "オーケ@@": 14827, "挺@@": 14828, "埼": 14829, "豹": 14830, "訛@@": 14831, "秦@@": 14832, "栃": 14833, "押": 14834, "戴": 14835, "賦@@": 14836, "誉@@": 14837, "鑽": 14838, "筈": 14839, "м@@": 14840, "爺": 14841, "返": 14842, "媛": 14843, "卯@@": 14844, "閘@@": 14845, "咬@@": 14846, "奴@@": 14847, "珂@@": 14848, "ペンシル@@": 14849, "サウンド@@": 14850, "蒐@@": 14851, "斥@@": 14852, "呆@@": 14853, "湊@@": 14854, "むね": 14855, "舜": 14856, "檀@@": 14857, "葦": 14858, "坐": 14859, "م@@": 14860, "咎@@": 14861, "拭": 14862, "殊": 14863, "薛@@": 14864, "邉": 14865, "聚@@": 14866, "躯": 14867, "閤": 14868, "薙": 14869, "冥": 14870, "はり": 14871, "у@@": 14872, "訊@@": 14873, "蜘@@": 14874, "胚@@": 14875, "牝": 14876, "舘@@": 14877, "蕩": 14878, "琶": 14879, "麾@@": 14880, "瀕": 14881, "茅": 14882, "繍": 14883, "抑": 14884, "琢@@": 14885, "嚆@@": 14886, "只": 14887, "碩": 14888, "オリン": 14889, "200@@": 14890, "潘": 14891, "絨@@": 14892, "糧@@": 14893, "淫@@": 14894, "樽@@": 14895, "飲": 14896, "鉤@@": 14897, "轢": 14898, "楢@@": 14899, "晶@@": 14900, "摺": 14901, "遙": 14902, "笛@@": 14903, "麟@@": 14904, "麒@@": 14905, "詳": 14906, "饅@@": 14907, "孤": 14908, "韋@@": 14909, "愁": 14910, "靭": 14911, "蛛": 14912, "分か@@": 14913, "そこ@@": 14914, "暁@@": 14915, "堰@@": 14916, "杵@@": 14917, "マサチューセ@@": 14918, "曇@@": 14919, "晋@@": 14920, "潔@@": 14921, "ows": 14922, "怯@@": 14923, "杜@@": 14924, "芹@@": 14925, "聯": 14926, "メッセ@@": 14927, "紺": 14928, "讒@@": 14929, "會": 14930, "倶@@": 14931, "柑@@": 14932, "使館": 14933, "茜": 14934, "橙@@": 14935, "翅@@": 14936, "喪@@": 14937, "ところ@@": 14938, "櫛@@": 14939, "→@@": 14940, "耀@@": 14941, "紘": 14942, "靱@@": 14943, "寵": 14944, "厥": 14945, "錘": 14946, "蚕@@": 14947, "膠": 14948, "トヴィ@@": 14949, "ر@@": 14950, "諏@@": 14951, "span": 14952, "勉@@": 14953, "佩@@": 14954, "禰@@": 14955, "紆@@": 14956, "厨": 14957, "パシ@@": 14958, "á": 14959, "廬": 14960, "テイン@@": 14961, "抄@@": 14962, "畏@@": 14963, "喉@@": 14964, "遜": 14965, "云": 14966, "コンサ@@": 14967, "荀@@": 14968, "眉@@": 14969, "博物@@": 14970, "傲@@": 14971, "賊@@": 14972, "â@@": 14973, "屑": 14974, "鷺": 14975, "嵩@@": 14976, "姶@@": 14977, "認@@": 14978, "婁": 14979, "痙@@": 14980, "拭@@": 14981, "Ω": 14982, "♪@@": 14983, "น@@": 14984, "Wind@@": 14985, "腫@@": 14986, "祓@@": 14987, "宥@@": 14988, "輩": 14989, "茉@@": 14990, "♪": 14991, "滸@@": 14992, "簒@@": 14993, "ī": 14994, "預": 14995, "曜@@": 14996, "ポルト@@": 14997, "饗@@": 14998, "鷺@@": 14999, "ي@@": 15000, "把": 15001, "研究@@": 15002, "霜@@": 15003, "瀧@@": 15004, "ß@@": 15005, "簿@@": 15006, "臆@@": 15007, "峯@@": 15008, "卦": 15009, "□": 15010, "湛": 15011, "◎": 15012, "零@@": 15013, "或": 15014, "ベト@@": 15015, "俵@@": 15016, "摺@@": 15017, "櫻": 15018, "孟@@": 15019, "ジニア": 15020, "萄": 15021, "胴@@": 15022, "綜@@": 15023, "碗": 15024, "愕": 15025, "檎": 15026, "涌@@": 15027, "閏@@": 15028, "乖@@": 15029, "鄴": 15030, "竈": 15031, "冴@@": 15032, "й": 15033, "⇒": 15034, "楊": 15035, "ジャージー": 15036, "濤": 15037, "哈@@": 15038, "旦@@": 15039, "献": 15040, "租": 15041, "卯": 15042, "游": 15043, "顆@@": 15044, "衍": 15045, "篆@@": 15046, "Recor@@": 15047, "らかの": 15048, "贖@@": 15049, "蟹@@": 15050, "碁@@": 15051, "閑": 15052, "漿": 15053, "思": 15054, "垢": 15055, "マーケ@@": 15056, "樺": 15057, "璽": 15058, "涅@@": 15059, "ā": 15060, "蛍": 15061, "‘": 15062, "蓉": 15063, "吻@@": 15064, "韮@@": 15065, "膣": 15066, "析@@": 15067, "會@@": 15068, "嬰": 15069, "Ⅰ": 15070, "筑": 15071, "耐": 15072, "耽@@": 15073, "伍@@": 15074, "袖@@": 15075, "槍@@": 15076, "宕@@": 15077, "丕": 15078, "#@@": 15079, "貪@@": 15080, "エレベー@@": 15081, "菖@@": 15082, "フリードリ@@": 15083, "堆@@": 15084, "卜": 15085, "與": 15086, "位置@@": 15087, "厄": 15088, "吠@@": 15089, "梶": 15090, "戎": 15091, "鐵@@": 15092, "函@@": 15093, "暉": 15094, "粕@@": 15095, "碓@@": 15096, "凛": 15097, "みに": 15098, "雁@@": 15099, "亢@@": 15100, "抒@@": 15101, "郊": 15102, "蟹": 15103, "圳@@": 15104, "團@@": 15105, "«": 15106, "ぁ@@": 15107, "ゝ": 15108, "ロバ@@": 15109, "綏@@": 15110, "擁": 15111, "囁@@": 15112, "﨑": 15113, "ゼント": 15114, "鋸": 15115, "佃": 15116, "荻": 15117, "并@@": 15118, "靡": 15119, "犀@@": 15120, "本当@@": 15121, "攣": 15122, "應@@": 15123, "兗@@": 15124, "釣": 15125, "畷": 15126, "ザク@@": 15127, "翻": 15128, "艘": 15129, "侠@@": 15130, "證@@": 15131, "椒": 15132, "ヨーロッ@@": 15133, "ゐ": 15134, "箋": 15135, "г@@": 15136, "ο@@": 15137, "些@@": 15138, "ب@@": 15139, "榮": 15140, "壷": 15141, "餃@@": 15142, "隧@@": 15143, "煎": 15144, "彪": 15145, "С@@": 15146, "疏@@": 15147, "厭@@": 15148, "袂": 15149, "秤": 15150, "煌": 15151, "竇@@": 15152, "槃": 15153, "睨@@": 15154, "諫": 15155, "Ａ": 15156, "禽": 15157, "θ": 15158, "µ": 15159, "莉": 15160, "寧@@": 15161, "刹": 15162, "鯛": 15163, "鍮": 15164, "距": 15165, "亘": 15166, "裾@@": 15167, "套": 15168, "俸@@": 15169, "趾": 15170, "暖": 15171, "炉@@": 15172, "扮@@": 15173, "ドニア": 15174, "轟": 15175, "涙@@": 15176, "虹@@": 15177, "繭": 15178, "コンク@@": 15179, "遡": 15180, "牒": 15181, "ς": 15182, "疼@@": 15183, "憾": 15184, "謗": 15185, "昧": 15186, "溥@@": 15187, "廿@@": 15188, "３@@": 15189, "芦": 15190, "ゞ@@": 15191, "誹@@": 15192, "∈": 15193, "穎": 15194, "痴": 15195, "琳": 15196, "トリウム": 15197, "スリム": 15198, "撮": 15199, "蹊@@": 15200, "煥": 15201, "桶@@": 15202, "凰": 15203, "班@@": 15204, "羨@@": 15205, "祉@@": 15206, "浚@@": 15207, "呪": 15208, "輿@@": 15209, "侵": 15210, "恣@@": 15211, "弛@@": 15212, "膜@@": 15213, "祟@@": 15214, "鷗@@": 15215, "闇@@": 15216, "遁": 15217, "臥": 15218, "捌@@": 15219, "拙": 15220, "撰@@": 15221, "宇都@@": 15222, "姻@@": 15223, "閔@@": 15224, "匁": 15225, "藏": 15226, "烈@@": 15227, "釉@@": 15228, "酉": 15229, "描": 15230, "ケード": 15231, "絞": 15232, "ヒー": 15233, "ざま": 15234, "恪": 15235, "取締@@": 15236, "毯": 15237, "毫": 15238, "般": 15239, "嬢@@": 15240, "戊": 15241, "祚": 15242, "憩@@": 15243, "隴@@": 15244, "錮": 15245, "閩@@": 15246, "輜@@": 15247, "推": 15248, "竄": 15249, "ミシ@@": 15250, "ć": 15251, "憧@@": 15252, "攪@@": 15253, "冨": 15254, "蒙@@": 15255, "奏曲": 15256, "鋏@@": 15257, "獨@@": 15258, "にお@@": 15259, "奢": 15260, "箕": 15261, "玩": 15262, "墜": 15263, "哀": 15264, "瑛": 15265, "朽": 15266, "ن@@": 15267, "顛@@": 15268, "較@@": 15269, "猫@@": 15270, "ã@@": 15271, "吟": 15272, "樊@@": 15273, "柚@@": 15274, "憂": 15275, "屏": 15276, "α@@": 15277, "迷": 15278, "蹄@@": 15279, "訛": 15280, "♥": 15281, "ن": 15282, "筏": 15283, "擲": 15284, "諭": 15285, "蝕": 15286, "巽": 15287, "厘": 15288, "魃": 15289, "粥": 15290, "圀": 15291, "諌@@": 15292, "蛭@@": 15293, "礎@@": 15294, "蛹": 15295, "漸": 15296, "蛙": 15297, "膀@@": 15298, "狛@@": 15299, "蕨": 15300, "唾@@": 15301, "袈@@": 15302, "懿": 15303, "喝@@": 15304, "餡": 15305, "欄@@": 15306, "砥@@": 15307, "宵": 15308, "芒": 15309, "à@@": 15310, "胱": 15311, "蚊": 15312, "翰": 15313, "慕": 15314, "崑": 15315, "企": 15316, "ा@@": 15317, "需@@": 15318, "腋": 15319, "蟄@@": 15320, "庚@@": 15321, "諒": 15322, "糠": 15323, "緻": 15324, "簾": 15325, "稙@@": 15326, "嫡": 15327, "薙@@": 15328, "欅": 15329, "鮭": 15330, "糾": 15331, "漣": 15332, "鵜": 15333, "苅@@": 15334, "喩@@": 15335, "瓶@@": 15336, "桁@@": 15337, "距@@": 15338, "เ@@": 15339, "炊": 15340, "巫": 15341, "じく": 15342, "í": 15343, "析": 15344, "プロイ@@": 15345, "°@@": 15346, "榊": 15347, "昏": 15348, "妹@@": 15349, "蓬@@": 15350, "萱@@": 15351, "禄@@": 15352, "靴@@": 15353, "п@@": 15354, "プロセッ@@": 15355, "フェスティ@@": 15356, "頚@@": 15357, "腔@@": 15358, "瘡": 15359, "勒@@": 15360, "級生": 15361, "糎": 15362, "屍": 15363, "叫": 15364, "弐": 15365, "旱@@": 15366, "惠": 15367, "恕": 15368, "鮎": 15369, "祢": 15370, "４@@": 15371, "掲": 15372, "饒": 15373, "ずか": 15374, "悉@@": 15375, "叛": 15376, "倹@@": 15377, "≒": 15378, "ē@@": 15379, "檻": 15380, "膳@@": 15381, "肌@@": 15382, "榎": 15383, "灸@@": 15384, "來": 15385, "ソナ@@": 15386, "糞@@": 15387, "栃@@": 15388, "旛": 15389, "嵌@@": 15390, "センチ@@": 15391, "ô@@": 15392, "斤": 15393, "なた": 15394, "輻@@": 15395, "膝@@": 15396, "瑚": 15397, "柊": 15398, "咳": 15399, "ø@@": 15400, "凧": 15401, "撹@@": 15402, "幟": 15403, "鍬": 15404, "ガース": 15405, "璃@@": 15406, "ろん": 15407, "ั@@": 15408, "升@@": 15409, "鯖@@": 15410, "ν": 15411, "険": 15412, "裟": 15413, "霍@@": 15414, "＠": 15415, "逐": 15416, "臀": 15417, "埔@@": 15418, "ミサイ@@": 15419, "灌": 15420, "做@@": 15421, "ō@@": 15422, "頌@@": 15423, "蓬": 15424, "莽": 15425, "橙": 15426, "絢@@": 15427, "憶": 15428, "凸@@": 15429, "掠": 15430, "辣": 15431, "楼@@": 15432, "蟻": 15433, "燭": 15434, "邇": 15435, "ł@@": 15436, "幇@@": 15437, "ルーニャ": 15438, "讀@@": 15439, "㎞": 15440, "^@@": 15441, "漠@@": 15442, "←": 15443, "桓": 15444, "頓": 15445, "錆": 15446, "鈍": 15447, "蔭@@": 15448, "矩@@": 15449, "爾@@": 15450, "泣": 15451, "崖@@": 15452, "雛@@": 15453, "錠@@": 15454, "鞠": 15455, "邵@@": 15456, "्@@": 15457, "椀": 15458, "票@@": 15459, "槇": 15460, "屠@@": 15461, "驃@@": 15462, "桔@@": 15463, "械@@": 15464, "にわ@@": 15465, "溜": 15466, "什@@": 15467, "誼": 15468, "б@@": 15469, "鮫": 15470, "徊": 15471, "薗": 15472, "徘@@": 15473, "ブルガ@@": 15474, "瓜@@": 15475, "フォーマ@@": 15476, "裡": 15477, "摯": 15478, "パソ@@": 15479, ";@@": 15480, "膿": 15481, "此": 15482, "祁@@": 15483, "庵@@": 15484, "紗@@": 15485, "②": 15486, "墺": 15487, "騒": 15488, "アメリ@@": 15489, "誦": 15490, "瓊@@": 15491, "燻@@": 15492, "カリフォル@@": 15493, "屠": 15494, "儒": 15495, "ヂ": 15496, "謬": 15497, "灸": 15498, "忽@@": 15499, "仇@@": 15500, "κ": 15501, "餌@@": 15502, "堆": 15503, "櫃": 15504, "過ご@@": 15505, "募": 15506, "①": 15507, "頻": 15508, "鏃": 15509, "琥@@": 15510, "椋": 15511, "努": 15512, "髏": 15513, "髑@@": 15514, "鞄": 15515, "髷": 15516, "槇@@": 15517, "劫": 15518, "อ@@": 15519, "！@@": 15520, "賤@@": 15521, "梧@@": 15522, "渭@@": 15523, "冉@@": 15524, "砺@@": 15525, "牡": 15526, "ρ@@": 15527, "鏑@@": 15528, "鉾@@": 15529, "潭@@": 15530, "姦@@": 15531, "褐@@": 15532, "蜷@@": 15533, "芋@@": 15534, "新聞@@": 15535, "я": 15536, "臥@@": 15537, "珀": 15538, "爺@@": 15539, "埃": 15540, "テム": 15541, "ローチ": 15542, "粕": 15543, "堡@@": 15544, "謡@@": 15545, "決定@@": 15546, "螺": 15547, "糊": 15548, "稽@@": 15549, "媚": 15550, "<@@": 15551, "蔦": 15552, "ก@@": 15553, "蔓": 15554, "渉@@": 15555, "蜜@@": 15556, "俘@@": 15557, "櫂": 15558, "筵": 15559,
[...]
